[PAD]
[UNK]
[CLS]
[SEP]
[MASK]
the
of
a
and
in
to
is
for
we
##s
that
1
0
as

are
on
i
##ing
with
this
2
be
by
e
t
s
from
an
3
n
al
which
it
c
et
word
p
not
or
can
our
4
r
model
f
data
5
each
words
d
language
##ed
l
all
w
o
based
##ly
have
used
g
x
set
one
two
using
b
more
m
system
at
these
table
##d
also
6
use
was
corpus
h
has
such
features
other
sentence
##e
between
results
information
k
only
u
text
##1
j
y
if
v
number
were
than
but
7
de
training
where
different
their
first
figure
task
example
8
some
##2
they
into
models
will
semantic
both
its
work
when
there
##a
translation
9
english
re
sentences
same
been
section
##n
most
given
test
feature
##t
no
tion
method
10
then
learning
approach
performance
q
time
order
context
ing
over
new
may
speech
systems
however
evaluation
do
score
level
type
analysis
case
pages
tree
target
verb
non
lexical
so
domain
well
structure
##y
##es
three
phrase
source
best
##r
##l
##al
while
algorithm
part
out
would
any
how
paper
syntactic
rules
about
proceedings
con
annotation
input
pos
##o
methods
terms
form
second
types
show
##er
specific
following
result
since
user
languages
like
relations
relation
shown
machine
because
shows
research
knowledge
see
computational
large
similar
many
12
noun
accuracy
possible
state
very
human
##i
parsing
processing
problem
pairs
z
them
document
np
process
en
natural
class
com
per
2013
linguistics
dependency
thus
entity
2010
function
baseline
classification
linguistic
2015
scores
rule
grammar
value
2014
similarity
question
those
sense
experiments
further
better
up
does
un
should
could
20
proposed
standard
topic
search
output
pair
corpora
##3
related
##m
2016
event
vector
parser
trained
single
way
present
size
high
##c
2012
dataset
representation
available
la
##b
found
11
correct
list
ex
after
us
http
documents
term
sequence
here
particular
pre
2011
2009
2008
14
precision
2007
step
what
conference
sets
general
cases
tasks
annotated
even
values
node
head
several
previous
examples
main
##th
measure
top
described
recall
verbs
discourse
texts
average
phrases
above
pro
100
15
chinese
probability
association
alignment
50
co
error
web
extraction
2006
tag
2005
simple
##k
make
multi
gram
common
within
find
consist
label
graph
statistical
hand
therefore
2004
whether
through
lexicon
without
2003
quality
study
13
train
length
errors
defined
much
automatic
sub
another
under
name
instance
classifier
frequency
contains
resources
30
extracted
distribution
development
query
approaches
applied
small
identify
right
space
entities
end
obtained
network
cross
uses
left
less
total
se
trees
need
consider
content
sentiment
relative
tags
perform
meaning
important
current
generated
object
patterns
le
dialogue
answer
fact
tions
due
character
note
higher
nodes
##on
argument
questions
recognition
learn
base
16
original
2017
2002
good
give
focus
represent
point
must
experiment
means
categories
various
he
corresponding
low
classes
presented
multiple
being
candidate
among
final
25
provide
often
users
##0
according
reference
next
##p
structures
tokens
positive
parse
17
category
18
##4
##though
subject
vectors
generation
##g
negative
able
made
full
selection
includ
four
000
parallel
##h
gold
th
labels
dictionary
mt
selected
long
every
compared
##as
apply
parameters
project
instances
19
log
rate
during
nouns
follows
ii
either
addition
improve
forms
distance
comparison
layer
string
role
framework
wordnet
etc
news
before
##an
future
include
relevant
token
still
german
had
60
embeddings
allow
take
80
line
automatically
obtain
across
##in
40
##f
nlp
bleu
indicate
respectively
position
additional
last
representations
lan
describe
overall
expressions
max
90
morphological
provided
complex
linear
##finally
concept
useful
considered
version
00
significant
2000
initial
events
ap
international
mean
segmentation
23
refer
description
agreement
shared
22
help
constraints
evaluate
34
tagging
21
might
attention
random
goal
associated
75
techniques
basic
24
ment
combination
26
instead
get
supervised
who
sen
support
group
cor
select
least
achieve
labeled
did
database
concepts
arg
definition
local
named
inter
performed
contain
datasets
lin
certain
open
detection
im
you
short
##ally
frame
annotations
extract
generate
lower
senses
called
2001
define
just
problems
measures
predicate
##en
matrix
1998
70
semantics
27
names
difference
pattern
pp
depend
french
known
cluster
university
87
vp
##st
arguments
##able
existing
man
##u
lead
joint
cannot
units
wikipedia
algorithms
likely
now
translations
let
clause
94
effect
range
33
real
art
japanese
match
dis
weight
person
manually
treebank
les
28
side
add
report
account
correspond
topics
95
application
directly
developed
29
times
ranking
characters
des
occur
arabic
85
embedding
below
assume
84
prediction
sample
larger
45
potential
individual
89
true
scale
retrieval
john
31
typical
post
build
run
workshop
92
57
compare
##re
32
86
pa
www
properties
tool
93
org
53
annotators
written
54
ma
propose
maximum
li
##6
people
networks
di
compute
55
capture
elements
spanish
domains
grammatical
83
lstm
68
done
articles
amount
represented
tools
vocabulary
78
ac
##ather
35
assigned
action
via
added
deep
computer
differences
component
tweets
par
expression
56
reported
67
provides
difficult
bilingual
speaker
applications
third
social
root
states
key
65
neura
88
improvement
probabilities
complete
resource
few
coverage
inference
66
97
38
##is
##ng
acl
svm
91
create
58
clustering
functions
collection
1999
hidden
sys
five
detail
62
sum
world
82
determine
parameter
look
rank
81
em
36
73
containing
weights
achieved
63
binary
temporal
derived
usually
assign
grams
syntax
fig
scheme
appear
against
matching
makes
72
path
guage
metrics
71
clusters
decision
##5
74
mapping
whole
includes
ne
42
seen
77
design
already
96
edge
computed
respect
free
though
observed
64
candidates
together
grammars
39
52
items
limited
produce
79
independent
occurrence
change
59
identification
points
theory
turn
utterance
contrast
76
evaluated
significantly
objects
taken
##ity
required
identified
expected
whose
works
procedure
metric
components
attribute
summary
outperform
produced
##ic
testing
47
bi
created
1997
mention
volume
back
me
contexts
studies
combined
##x
construction
sim
trans
code
global
built
modeling
51
69
introduced
parts
differ
textual
41
strategy
gen
01
classifiers
surface
hence
reduce
43
queries
49
hypothesis
ter
address
prior
##us
spoken
article
fea
memory
choice
authors
entries
author
statistics
index
location
subset
learned
his
purpose
participants
recent
represents
introduce
mentioned
view
nn
manual
appropriate
smt
setting
count
id
frequent
once
ta
detect
48
map
disambiguation
vs
44
61
stage
link
weighted
kind
answers
coreference
mod
entropy
utterances
unit
##or
37
module
unsupervised
necessary
sources
included
simply
effective
mentions
##over
go
constraint
call
aspect
parsers
deal
place
correlation
levels
regard
close
tagger
element
meeting
tional
entry
threshold
put
denote
science
aligned
far
interesting
technology
lemma
sec
ments
program
46
building
resolution
##eural
ones
links
construct
idea
empirical
dependent
du
control
start
proper
making
steps
cost
others
segment
sequences
crf
validation
semi
evidence
##nt
98
quite
decoder
agent
ture
direct
unique
know
ways
annotator
dependencies
mi
understanding
ar
1993
twitter
annual
especial
extend
pr
remain
lists
architecture
along
fine
follow
highest
cause
active
partial
require
groups
est
references
special
improved
highly
access
speakers
logical
1995
field
takes
product
##v
discussed
##ness
interpretation
mark
tend
tagged
da
down
marked
want
choose
interaction
interest
complexity
basis
experimental
reason
factor
major
express
predict
requires
strong
translated
loss
tive
presents
##te
extended
taking
clear
ad
implemented
off
solution
lm
details
needs
decoding
increase
separate
impact
plan
variable
around
ability
technique
rich
##more
online
itself
abstract
na
polarity
explicit
implementation
act
num
degree
##7
05
opinion
split
##w
objective
needed
constituent
equation
attributes
finite
correctly
aspects
collected
tures
conditional
attempt
reading
journal
ca
predicted
numbers
phase
read
variables
##ation
##at
200
alternative
currently
style
expressed
adaptation
employ
summarization
designed
roles
alignments
align
novel
cal
easily
enough
again
past
tic
cat
span
##to
unknown
calculated
issue
99
fixed
combine
edges
ontology
traditional
format
equal
tem
easy
image
1996
##ian
structured
describes
window
too
course
compar
emotion
1994
scoring
variation
core
issues
bayes
transfer
proc
conll
zero
##ent
chosen
generally
avoid
si
improvements
response
multilingual
ambiguous
ra
hard
papers
ratio
rel
combin
item
fully
derivation
hierarchical
min
date
performs
media
condition
press
##having
distributional
estimate
wide
scope
labeling
years
net
ner
interface
ity
descriptions
book
native
towards
factors
child
conditions
##ting
national
rnn
comparable
noise
finding
pronoun
actual
segments
kernel
cf
almost
discuss
page
generating
aim
rely
adjectives
frames
occurrences
monolingual
constructed
tested
er
entire
seems
yet
likelihood
ob
own
changes
gender
handle
syn
strings
followed
counts
supported
formal
column
distinguish
longer
smaller
thank
reflect
appears
dialog
qa
efficient
self
false
transition
similarly
discussion
share
confidence
file
st
sur
adjective
computing
summaries
percentage
ranked
compound
equivalent
1992
structural
verbal
chen
dans
##it
##le
##the
clauses
usa
samples
classify
predicates
advantage
xml
##allows
que
suggest
##vec
probabilistic
dif
she
age
distinct
software
review
liu
develop
lex
mechanism
estimation
say
classified
prob
feedback
observe
##lways
tweet
edit
subjects
pour
except
literature
visual
explore
outputs
van
ent
1990
##tion
property
her
nature
ambiguity
students
contextual
comments
boundaries
latent
otherwise
public
previously
der
layers
boundary
technical
lines
##ion
semeval
rest
majority
relationship
yield
ple
occurs
material
situation
variants
au
es
incorrect
regular
clearly
spelling
none
##ar
ba
later
06
forward
regression
latter
actions
obj
exp
optimal
little
grained
2018
am
reordering
randomly
seem
##8
investigate
dev
direction
pronouns
chunk
try
lack
graphs
slightly
ten
strategies
02
recently
linked
cnn
tences
penn
distributed
google
ence
namely
mar
zhang
su
ordering
correction
challenge
variety
slot
tence
overlap
understand
04
robust
considering
yes
plus
wang
exploit
##wise
usage
tween
keywords
bias
nominal
bound
filter
criteria
kinds
power
manning
estimated
belong
encode
tuning
expect
500
op
become
focused
calculate
consistent
upper
acm
tense
formed
effects
ble
rela
mainly
student
convert
denotes
arc
title
te
fo
mining
providing
keep
actually
default
lingual
matches
importance
une
stanford
##ive
encoder
exact
writing
my
assumption
constructions
increasing
combinations
template
##ment
300
tr
distributions
implicit
##et
sion
logic
internal
dynamic
symbols
million
templates
ever
david
parses
hierarchy
exist
formation
09
communication
affect
sampling
enable
engine
come
frequently
chain
##nd
accurate
explicitly
connected
reports
phenomena
definitions
generic
functional
sign
acc
great
wrong
morphology
said
greater
story
nor
sections
implement
el
preposition
why
sp
lexicons
##less
files
fi
reviews
nmt
rep
external
operations
european
until
filtering
acquisition
conceptual
starting
dictionaries
modified
##j
determined
brown
researchers
lation
sa
semantically
responses
constituents
punctuation
effort
american
near
expert
valid
becomes
answering
cosine
artificial
stack
asked
predictions
tation
relationships
year
bottom
overview
exactly
car
settings
community
ground
transliteration
fr
idf
mation
relevance
beam
lee
pipeline
analyses
indicat
believe
suggests
speed
czech
negation
characteristics
wsd
fields
##z
recurrent
paraphrase
informa
ti
els
message
employed
##driven
restricted
conducted
medical
specified
essential
exam
##ized
history
frequencies
missing
minimal
raw
practice
extension
encoding
##se
hmm
transformation
grant
rath
chapter
hypotheses
1000
trigger
heuristic
involved
behavior
##9
cover
identical
widely
suffix
bag
reduced
arxiv
influence
edu
early
reduction
pus
check
six
sem
gain
dimensional
learner
08
annotate
extracting
hu
lda
generative
03
return
contained
old
conversation
bank
##and
optimization
collect
noisy
continuous
meta
1991
adapt
##ce
nom
suitable
baselines
row
benefit
coherence
technologies
improves
lo
##id
italian
evaluat
expansion
center
underly
07
ij
stem
emnlp
oriented
infor
analyze
area
tests
minimum
##ry
adj
subj
listed
##man
unlike
symbol
voice
background
ensure
beginning
fol
notation
markov
pred
light
purposes
##ted
seed
pass
vary
environment
projects
iii
reasons
modifier
doc
working
day
manner
tf
processed
fold
paths
indeed
adopt
utilize
ber
divided
increases
paraphrases
removed
schema
gap
upon
referring
singular
shift
il
composed
observation
##ts
children
improving
presence
cognitive
intended
mutual
serve
tables
variant
cl
success
extra
series
dimensions
strict
prep
##ra
difficulty
entailment
positions
york
phonetic
hybrid
produces
personal
dt
partially
limit
crucial
studied
earlier
creation
intelligence
html
update
examine
lemmas
video
conjunction
specify
det
processes
anno
struc
primary
##est
extreme
linking
auto
##ated
eq
parsed
operation
agree
synsets
##rd
antecedent
chi
ro
ir
encoded
repre
assess
normalization
formula
beyond
mary
collins
fair
pl
##preliminary
runs
##by
yields
production
aims
wiki
sc
unlabel
comes
organization
neutral
occurring
ney
fast
principle
##tic
sufficient
##ers
michael
parent
meanings
transla
wmt
think
asr
computation
adapted
proach
ce
eval
##ne
uni
practical
convolution
play
genre
koehn
bigram
empty
##10
##os
naive
demonstrate
neg
solve
sensitive
extent
introduction
normal
po
##el
north
attachment
theoretical
sent
paragraph
universal
stand
para
effectiveness
contribute
treat
reasoning
claim
proceed
conclusion
coling
stop
cues
mo
normalized
explain
ab
former
methodology
additionally
hlt
notion
nous
worse
measured
char
automated
##times
heuristics
signal
translate
members
modules
experience
big
dutch
conversion
depth
terminal
images
stored
sparse
kb
composition
nist
##ve
auxiliary
1988
red
guidelines
decisions
approximately
col
pas
kim
ch
remove
synset
1989
audio
running
retrieved
alone
configuration
projection
half
korean
treated
adopted
analyzed
mor
script
##we
management
acoustic
compositional
mance
request
passive
ran
hindi
never
anaphora
transform
predicting
infer
avg
##de
reach
truth
perfor
involves
srl
wu
service
##of
inside
rouge
separately
##rs
scenario
substitution
ical
tics
reliable
move
ings
##ir
reveal
track
versions
offer
##ies
display
sults
city
markers
game
constant
synonyms
preference
shallow
sound
ferent
##ma
illustrated
helpful
creating
messages
val
syllable
cell
toolkit
facts
fall
huang
preceding
bad
poor
formalism
##14
bigrams
wsj
spatial
effectively
##ta
loc
func
contribution
##necessarily
dimension
broad
ou
replace
acts
scientific
ver
paradigm
plural
yang
algo
derive
ga
motivated
wi
marker
ties
efficiency
discriminative
men
draw
official
allowed
ha
fit
proportion
hold
metadata
determin
referred
setup
smoothing
induction
##ability
replaced
prepositions
prefix
decide
morpheme
reader
treatment
developing
##ch
learners
block
och
completely
findings
policy
possibility
fragment
adv
definite
posts
rates
incorporate
programming
meet
vowel
engineering
moses
russian
generates
body
reasonable
team
wh
formance
explained
fre
den
##lementary
held
ge
smith
black
relational
conclude
averaged
adjacent
lem
june
neur
##ll
evaluations
embed
similarities
son
av
subjective
phone
exists
rare
tems
dialogues
letter
variations
mwe
ud
health
challenges
arbitrary
possibly
applicable
lot
successfully
emotions
integrated
tile
popular
assignment
pruning
iteration
null
peter
specification
##na
va
skip
explored
humans
write
chart
caused
noted
seman
pure
ni
mikolov
transcription
begin
took
complement
hi
aware
##um
##ter
increased
cue
repeated
nl
sure
significance
turns
ibm
services
gener
sam
interactions
ng
vari
treebanks
criterion
embedded
iterations
matched
connect
modify
modal
food
central
face
##ary
soft
##la
forest
jj
interpreted
strongly
sizes
slots
alway
unigram
tech
portuguese
mode
labelled
klein
def
compounds
naacl
perspective
letters
region
mantic
spans
conclusions
interactive
linguis
##12
detected
ref
morpho
clas
successful
lapata
easier
assessment
phoneme
distinction
1986
organized
sort
status
goals
accept
beside
closely
prove
giving
investigated
pseudo
##11
inputs
ieee
notice
qui
china
recognized
150
guages
seg
incremental
perfect
foreign
sl
mapped
something
cs
coarse
reviewers
modifiers
judgments
##q
marks
##he
approximate
fragments
pe
phenomenon
clinical
describing
##ons
constrained
##ceedings
confirm
stochastic
perplexity
terminology
met
causal
holds
lexicalized
drop
duration
carry
nps
##ically
chunks
advance
gr
argue
aux
recognize
license
themselves
participant
vec
uniform
young
##ner
opinions
feed
ph
figures
ratings
absolute
published
trigram
acknowledgments
docu
pat
cc
cation
batch
solutions
analyzer
ldc
oov
martin
editors
##ine
closed
indicated
confusion
else
1987
outside
preprocessing
abstracts
your
wise
sig
ger
literal
segmented
company
integration
ask
depen
room
suggested
weighting
vi
ensemble
jointly
subsequent
softmax
oracle
keyword
planning
mixed
ques
clark
tu
foundation
comp
conversational
ccg
macro
comparative
strength
corre
chris
immediately
computa
fa
consideration
gradient
ic
straightforward
largest
requirements
period
suppose
##ant
ill
remov
ru
box
unification
experi
going
ml
tuned
spaces
independently
spe
christopher
posterior
generator
cally
portion
recorded
##adding
##am
maintain
cate
directions
choices
involve
statements
uk
framenet
unseen
consistency
prosodic
ordered
digital
him
mit
conventional
agents
versus
newspaper
swedish
mwes
ve
surprising
received
involving
ace
phras
dep
sions
integrate
classi
arcs
richard
stages
addressed
chose
stance
flexible
johnson
rhetorical
subtask
record
bring
historical
speaking
cut
ideal
theme
situations
behind
##for
survey
multimodal
establish
site
choos
covered
concrete
modern
satisfy
dan
thought
demonstrated
hyper
proved
grow
anchor
exhibit
micro
formally
illustrate
submitted
ja
lrec
inspired
modification
schemes
argu
metaphor
helps
referent
screen
eight
discover
vb
cambridge
roughly
tors
ral
briefly
editing
tried
observations
linguistically
school
life
house
illustrates
graphical
biomedical
applies
internet
categorization
subtree
patient
##16
rithm
rec
leave
comment
cohen
returns
statement
ef
wn
ample
columns
logistic
challenging
alphabet
derivations
activity
annotating
lattice
##spite
eral
trec
##tive
flow
mental
##ous
recursive
##ther
readability
han
library
respective
political
drawn
shape
coding
seven
guide
pars
government
##age
switch
gene
green
producing
ll
fourth
amounts
resolve
collocations
fill
summarize
morphemes
stories
projective
glove
coefficient
##me
decided
family
yu
synonym
hours
eu
efforts
wa
##ns
annota
sh
gru
nivre
matrices
measuring
operator
genres
ci
front
presentation
##hap
dp
areas
collocation
promising
estimates
pronunciation
posed
established
generalization
fewer
decomposition
experts
taggers
copy
##ia
proposition
lu
ate
lr
preferred
explanation
movie
port
causes
tagset
chains
representative
sequential
mind
supervision
somewhat
expensive
representa
principles
super
interpret
progress
hope
bow
001
views
##13
sg
percent
github
mcdonald
thanks
springer
transcriptions
relatedness
preferences
realized
cp
bit
##dding
intermediate
nearly
union
chang
indicator
daniel
400
maximize
merging
home
##ish
perceptron
sophisticated
neu
narrative
pi
phonological
constitute
workers
hy
acceptable
subjectivity
kappa
glish
rating
precise
directed
1985
conduct
tell
platform
backward
movement
returned
consistently
stream
optional
ous
dia
represen
continue
sup
motion
facilitate
augmented
handling
notes
generalized
probab
prevent
##son
formulation
onto
stan
##ty
remains
greedy
charniak
nevertheless
taxonomy
anonymous
kernels
##06
meaningful
databases
considerable
benchmark
ed
fu
ko
equally
adverbs
bio
muc
hovy
july
chunking
judge
prefer
compression
thesaurus
particle
collections
##ization
pivot
sin
meth
paul
options
unfortunate
tactic
salient
af
desired
middle
250
lowest
contributions
trivial
activation
session
syllables
prepositional
ji
instructions
##ie
##ur
determiner
mass
iv
ference
splitting
originally
gave
hypernym
##no
bold
stress
square
interval
restrict
tuple
conversations
evalu
recognizer
things
curve
institute
dont
unigrams
overlapping
valuable
reliability
propagation
accuracies
corrected
passage
suffixes
introducing
connection
weak
proaches
differs
sta
tar
turkish
neither
concatenation
scenarios
emotional
efficiently
starts
lexi
ers
targets
##da
msa
##ably
obvious
maps
checking
analyz
unified
simplified
andrew
sentential
sharing
dr
solved
cur
filtered
white
##li
##interested
repeat
bo
tio
anaphoric
informative
canonical
grouped
capable
##nlp
margin
approximation
channel
restriction
motivation
nlg
syntactically
triples
kl
saw
jan
hit
##io
tune
identity
country
talk
##dicates
simi
intuition
coordination
mixture
reached
examined
knowl
trend
male
wo
ie
separated
tuples
participat
initially
dog
substantial
color
inflection
eng
sch
occurred
incorporat
craft
option
putational
##dency
balanced
heads
worth
fur
predicts
orthographic
tracking
restrictions
indi
pt
implies
density
ontologies
sont
readers
##relies
lar
mis
##llows
stated
searching
machines
checked
tone
belongs
cho
lated
##ni
carrie
bu
thread
tries
law
locations
society
burch
comprehension
fin
viterbi
diversity
mea
street
chance
merged
zhou
optimized
robert
tm
department
realization
investigation
concerning
limitations
assuming
marking
xu
sun
receive
extrac
retrieve
physical
intuitively
bill
compiled
tokenization
variance
critical
simplification
member
stems
recogniz
belief
amr
essays
geo
##que
typed
pragmatic
pmi
##ov
uncertainty
existence
mc
roth
greatly
dun
mu
prototype
expectation
fail
ig
connectives
legal
compu
proof
res
taiwan
dialect
mr
away
fusion
distant
fl
suggestions
optimize
inflectional
editor
oc
titles
indexing
##ca
iterative
records
contents
ambiguities
medium
captured
diverse
##burg
ods
topical
controlled
##15
acquired
scored
chine
leaf
cfg
highlight
ann
respond
extensions
gets
lengths
jo
ka
maximal
gate
ure
subsets
##09
immediate
advantages
transitions
mono
die
james
chat
discovery
ho
probable
paragraphs
electronic
rect
pendency
store
apart
enhance
latin
doing
iden
advances
preprint
intensity
bootstrapping
vice
grid
books
attached
travel
directional
inverse
att
behaviour
mood
##mostly
raise
freely
generalize
concerns
nes
cr
competitive
ignore
um
powerful
codes
convey
japan
fix
equivalence
prop
##ble
proposal
##ms
##ha
brief
ters
gains
neighbors
sites
ideas
rst
assumptions
late
scribed
cess
##di
extensive
teams
mon
denot
callis
predictive
##il
qualitative
ev
ms
accepted
##17
##net
newswire
cas
clues
disease
##ds
scene
tri
##ist
programs
120
pri
devel
regions
knight
changed
vowels
guistics
faster
minutes
expanded
signals
supports
care
simpler
marcu
passed
shorter
med
extracts
firstly
dialects
ation
replac
filters
seq
judges
##ti
static
palmer
##01
interact
miller
vo
alternatives
lations
decrease
propbank
tra
neighbor
vol
email
##lex
correlate
thing
mul
toward
zhu
adequate
naturally
finnish
rl
##mod
force
evalua
precisely
##arried
reducing
translat
gaussian
days
las
transducer
outcome
cha
referential
##07
mots
api
morph
flat
really
cap
expand
##05
syntac
captur
mini
multiword
san
intra
please
utiliz
comparisons
granularity
entre
##ities
adverb
ep
var
surrounding
products
ling
##enhanced
led
goes
rows
merge
participate
##08
tations
usual
appearing
synthetic
pitch
1983
modality
canada
selects
lp
tively
solving
tent
addi
deviation
wants
gorithm
insertion
nns
synthesis
insert
changing
tv
apple
package
hits
numerical
##be
vertices
constituency
systematic
fluency
procedures
difficulties
1980
pose
##ised
integrat
clean
resolved
intersection
reg
submission
pick
pcfg
education
tational
fashion
##ating
socher
ward
##00
sampled
tain
secondary
overcome
transitive
origin
displayed
bar
indirect
vision
considers
updated
sis
incorporated
consonant
piece
ai
wer
600
moving
operators
##em
placed
coherent
performances
reverse
##if
thomas
activities
quantity
1977
quickly
1984
throughout
##mt
obviously
virtual
summarized
mother
rang
modelling
female
empirically
places
##ou
standards
connections
command
characteristic
propositions
minimize
fundamental
plain
familiar
mitchell
erroneous
penalty
absence
tw
lf
##cl
configurations
normally
double
axis
##mi
affected
transformations
##are
##ard
essay
relate
handled
##flected
##ff
concern
##nn
hav
signed
thematic
comprehensive
verify
water
academic
##ual
reranking
voting
compact
mappings
giza
released
ending
##03
epochs
suffer
distribu
adaptive
creative
##20
calculation
dm
counted
quence
compo
boolean
chiang
kept
salience
mate
perception
tial
europarl
gi
click
got
gloss
inventory
entirely
divergence
wish
ken
revision
citation
covers
expres
blocks
intent
stock
mal
##co
church
dirichlet
pereira
intelligent
omitted
1982
actor
##ee
initiative
interpretations
consequent
##defining
##ct
conj
boost
wait
inclusion
manage
sv
round
plays
wall
bilstm
hpsg
aaai
simultaneously
closest
##ri
concerned
identifie
triple
inferred
accurately
blue
linguists
correspondence
attach
orientation
requir
marcus
says
mechanisms
mm
slight
encourage
walk
transcribed
1981
substantially
fails
shi
dict
eat
nc
loop
claims
trade
judged
uation
##ying
protein
dic
tac
pool
individuals
fication
correlations
adam
nat
united
cache
theories
stable
discussions
##83
availability
atomic
discrete
picture
excluded
concentrate
ignored
equations
110
costs
fund
plans
thesis
sented
attribution
ut
matter
seek
join
accu
##ut
##sa
mann
##ate
xi
indicators
plot
break
proposes
dom
completed
beneficial
appendix
recording
ontological
lang
park
specifications
proba
superior
scripts
ease
duced
release
forum
happens
benefits
cessing
judgment
connective
bnc
price
##ey
cer
pieces
identifier
vide
duc
clus
signs
quantitative
nal
constrain
business
mandarin
consuming
turney
dropout
inform
games
senti
##ning
brackets
minor
transcripts
rte
star
crfs
risk
conditioned
brit
modeled
##ro
engines
binding
##qa
accord
started
ram
tran
fed
coefficients
##sen
spontaneous
countries
##pos
understood
umls
huge
tl
pearson
agency
grade
##seq
today
svms
ct
##sim
##ke
initialization
gesture
comprises
integer
consequence
prompt
recordings
irrelevant
possi
ness
bases
leaves
leverage
bidirectional
##02
october
august
simplicity
redundancy
prague
pilot
amazon
considerably
regularization
meteor
norm
adequacy
terminals
guistic
##gen
covering
located
dard
curves
market
rt
fac
website
filling
supporting
polish
rise
calculat
music
##rt
passages
eye
tained
stor
server
prominent
whenever
anaphor
berlin
##ua
##ai
worst
party
joshi
windows
inserted
mrr
feasible
ranks
reward
partition
evolution
ated
adds
requirement
patent
sy
intend
dat
##nc
nine
ranges
accent
boy
induce
buy
lsa
nb
sparseness
bl
berkeley
zhao
aggregation
blog
tim
varies
lies
president
##ance
conjunctions
restaurant
device
pay
recover
pu
profile
src
meant
ny
broadcast
appeared
##lying
king
dings
redundant
soon
pan
paraphrasing
exploring
augment
asso
moore
exclud
mem
##si
anal
ocr
vote
frank
documentation
sible
failure
devices
nonterminal
##type
adverbial
##les
sd
subordinate
##val
180
counting
subtrees
classical
freebase
problematic
distances
speak
automata
conflict
demonstrates
sorted
grounded
pooling
completion
triggers
deterministic
pen
versa
##im
ilp
france
lab
pora
germany
ultimate
lows
rnns
##om
love
yi
favor
gov
##duced
download
ki
papineni
argmax
resnik
compares
prolog
estimating
cn
apparent
liang
prec
ours
ics
synchronous
##viewed
wider
exploited
candi
deletion
sciences
load
pur
crowd
acquire
persons
128
drive
##ul
tracted
office
bility
possibilities
telephone
desirable
eventually
phonemes
senseval
markup
automaton
concatenated
formalisms
comme
dl
correlated
lt
sides
gaps
suit
incomplete
deter
exception
theorem
##ily
mail
width
##ci
hotel
player
calls
bear
balance
##pp
##izing
intuitive
bojar
mckeown
impossible
dual
opposite
complements
flexibility
utility
spread
repository
info
##time
grouping
week
mert
dyer
##ac
hearer
##induced
billion
db
exchange
freq
svd
associ
dc
sw
insights
##compositionality
alexander
url
ples
dates
materials
trace
particles
proven
pc
dense
metaphorical
##ka
##va
das
sparsity
fifth
compatible
greek
transactions
del
##ling
computationally
arise
informal
##ot
filled
poses
applica
came
lstms
disambiguate
forced
fraction
gra
traction
periments
contract
inc
corrections
ei
dec
matic
##hi
coded
lafferty
gigaword
twice
communities
##ak
bin
lemmatization
literary
avail
lc
functionality
tual
commercial
ri
jiang
distri
pop
##iter
trust
rarely
mistakes
impor
nested
identi
instruction
antecedents
readings
##rank
om
##one
ject
abbreviations
valence
edited
illustration
relax
magnitude
limitation
lev
##ss
month
##llowing
sider
measurement
valued
relat
lit
sketch
##our
edition
imp
guess
lowing
predictor
save
xue
##ful
exper
subtasks
blogs
consecutive
strouds
hundred
contrary
darpa
contact
morphosyntactic
complicated
ban
requests
discarded
##rc
adjunction
george
ful
##ative
phases
stat
precede
160
spectively
limits
specifi
enter
cial
rectly
bridge
drug
##aux
inferences
terns
thresholds
accounts
uas
deriv
comprise
corr
hot
ke
som
edits
goldberg
ends
ip
##tag
eliminate
bengio
cohesion
anthology
tal
ben
accordingly
shortest
valency
##lin
descriptive
characterize
visualization
stemming
marginal
preserve
paradigms
patients
##word
retain
thai
associa
straints
biased
attack
hong
tackle
ag
switching
ready
ces
##ical
java
sponding
trends
argumentation
road
narrow
comma
informed
posi
##ial
gu
adjust
signifi
inherent
march
california
convergence
##all
nguyen
dimensionality
gle
plausible
formats
exploration
carefully
usefulness
tendency
crowdsourcing
1975
revised
correctness
teaching
feel
##04
je
derivational
archive
blei
stances
resentation
realistic
divide
seeds
classifi
architectures
respec
bird
intention
103
customer
##do
hyponym
despi
cycle
ogy
cast
expectations
elaborate
assist
sf
turned
modifications
deux
fp
mihalcea
april
financial
consensus
money
labelling
array
abs
classifica
positives
cells
wei
cu
subsequently
extractor
updates
someone
discusses
worked
qu
computers
incorrectly
pang
gestures
population
women
send
hall
abbreviation
prp
##ba
##30
aid
fan
##ls
rors
##up
coordinate
trial
emo
iso
collaborative
looks
jurafsky
fuzzy
basque
energy
franz
unambiguous
hermann
policies
longest
spectral
sounds
prepared
shall
800
weakly
deliver
characterized
suited
associations
sci
live
heavi
sr
010
robot
distinguished
disagreement
transducers
##ex
median
expressive
validate
ysis
##mann
trigrams
##un
recog
##ton
fer
python
nil
jones
bridging
rb
cardie
mathematical
adjoining
highlighted
refined
harder
cultural
##ure
judgements
imple
defin
hashtags
translators
quantifiers
william
indicative
moderate
spec
240
south
repetition
tensor
tance
adjunct
jean
##ge
rc
simulate
exponential
confer
mentation
thompson
dbpedia
yarowsky
distinctions
analogy
remainder
monitor
ide
simplify
avons
argumentative
1979
accessible
verbnet
philipp
clustered
descrip
indices
scaling
failed
gale
hash
##ster
bc
##ho
beddings
cre
mid
tor
publication
erence
centre
conf
lection
##ap
enabl
sessions
mat
metaphors
enrich
tie
barzilay
mccallum
ellipsis
responsible
spearman
wiebe
proficiency
urdu
ignor
affixes
##form
assignments
bulgarian
##out
pres
choi
importantly
iteratively
vised
debate
egy
##ence
confirmed
implicitly
months
associate
correspondences
bounded
genera
br
decreases
intro
smooth
##ire
lms
os
##red
intervals
receives
portant
ju
job
enti
turk
slow
schmidhuber
sarcasm
communicative
complementary
capacity
pdtb
growth
mobil
##her
ot
fe
fied
specificity
uh
committee
pron
md
dot
indication
standing
dist
sym
cd
compose
##achieving
levin
tab
coming
mix
ond
bos
##50
degrees
properly
tc
walker
niques
ele
lecture
india
inst
analyse
##regarded
str
paris
threads
ear
##gram
cov
sk
bal
contrastive
capabilities
vertex
polysemous
oxford
obama
larity
brill
land
validity
nothing
glosses
stephen
##tions
sep
woman
unary
prefixes
richer
##au
##ological
aggregate
idioms
lexico
varied
sports
checks
push
lim
##getting
tax
122
simulation
attitude
##ad
140
und
##reinforcement
manager
air
tier
111
filler
nation
int
ences
stay
##english
agirre
pustejovsky
##ki
grateful
satisfied
encountered
lfg
sev
lie
omit
bel
rdf
rat
cascade
sufficiently
agreed
quency
moved
economic
##gan
##ory
##ver
consid
km
ana
girl
aimed
gao
substring
initialize
distortion
bitext
teacher
##mp
arti
##responding
##95
##ley
hypernyms
eric
ball
esti
tity
fined
rm
baldwin
excerpt
carroll
membership
variability
declarative
robustness
##25
hungarian
quantification
nj
emphasis
##ten
certainty
priority
nsubj
utter
deleted
tout
disambiguated
compris
previ
struct
moment
poorly
130
125
analy
sql
kong
stu
specialize
dobj
win
mp
nu
##ck
reflected
ty
curacy
insight
##18
twent
112
carri
proposals
sition
primar
rw
cific
qual
priori
sociation
##ette
referents
##ps
sification
professional
petrov
knows
##19
perspectives
sutskever
polynomial
bah
orthography
possessive
independence
daily
satellite
imperative
idiomatic
broken
spain
interfaces
outlined
levy
##lt
substitutions
war
hochre
tfidf
orig
averaging
london
motivate
lost
glass
gual
exclude
vc
reject
timex
prime
served
snow
searches
keyphrase
##ely
fst
cent
hl
translator
miss
capital
rp
hoc
examin
tanh
resolv
december
mac
##most
client
leaving
exclusively
yielding
personality
encouraging
synonymy
initialized
indian
conform
branching
stronger
unlikely
vbd
thousands
##ler
ized
productions
##ina
guo
nsf
##crosoft
segmentations
cos
cept
##np
categori
hmms
observ
##pa
coder
replacement
board
##ec
rated
retriev
compress
preci
anti
writer
shot
##tains
serious
symmetric
blind
jordan
happy
lookup
psychological
utilise
polysemy
shen
##list
cancer
pol
ongoing
kan
lea
traits
hour
eacl
recursively
hyperparameters
##ong
moves
discovered
hint
import
offered
captions
duce
lcs
writers
ser
fil
101
nli
dependents
couple
vious
counter
256
infrastructure
diagram
refinement
rankings
gaze
quantifier
tify
bootstrap
repair
##table
animal
sole
ws
statis
##lu
proximity
prosody
ordinary
dagan
begins
organizers
catalan
weston
##pe
1978
smart
navigation
nary
jp
proportional
solid
gather
ument
keyphrases
##media
foot
christian
urls
predictors
##ions
realize
pdf
tail
nese
commands
inf
police
williams
reply
rewrite
primitive
premise
aug
infinitive
delete
surprise
beliefs
##der
plied
natu
exemple
##ubcategorization
##anova
wanted
##ffective
promote
cision
clude
##ese
charac
reasonably
mais
charles
expertise
buffer
bengali
hirst
multinomial
interpolation
removal
broader
##rl
modes
reconstruct
film
snippets
chal
ptb
mot
##ger
incorporates
styles
len
sentation
fire
formulas
suf
operate
maria
lected
processor
investigat
passes
ative
ol
dominant
##ral
sibling
planner
appearance
daughter
nr
##rel
##ol
bracketing
doi
normalize
nega
zh
blank
republic
racy
analogous
erage
alter
gf
excellent
levenshtein
varieties
philadelphia
laboratory
psychology
adversarial
##za
143
##unded
discrimination
quantify
depicted
145
mer
marie
##isation
cpu
##ny
1970
rose
ciation
##well
rd
##gs
explains
nlu
sb
splits
##aki
##line
param
wd
differently
constructs
alex
grounding
abilities
350
arises
substitute
competition
mine
stylistic
hedge
branch
headword
marco
movements
ticular
clue
opt
##ding
intrinsic
tribution
ported
inte
tant
intensive
nucleus
modalities
verification
adjectival
mechanical
medicine
seventh
pagerank
educational
##led
129
systematically
smallest
capability
gathered
##luding
ctb
cloud
anger
##fi
mismatch
cies
preserved
beled
selec
basically
analysed
##art
conventions
##go
raising
exhaustive
poly
supposed
tokenizer
mrs
##ement
##cs
##rm
##ington
statistic
predic
hun
cook
##this
profiles
##98
eration
##ere
submissions
exceed
emphasize
division
subsection
cognate
oh
ik
discard
mst
rent
mlp
crossing
perceive
rea
classic
##cc
typing
scratch
portions
sentiments
seconds
habash
edinburgh
moschitti
washington
collobert
boston
council
reuters
wiktionary
layout
dropped
applicability
century
aclweb
scalable
execution
pantel
combina
danish
romanian
146
##dominated
aligner
composite
interna
asking
numeric
ization
rejected
orders
bet
sixth
ku
##ations
implications
route
ps
pers
dence
gui
##ich
hashtag
cited
condi
##res
##pr
har
##ists
##ural
formulated
sug
cognition
##day
hate
environments
influenced
gained
publications
attend
cheng
360
cw
consonants
pressions
kai
indefinite
sat
cates
##wo
##28
programme
oo
learnt
sive
subtype
por
cope
dag
acknowledge
demand
##sed
cons
lect
118
spell
hypothesize
stead
fly
september
steedman
hebrew
horizontal
histogram
josef
microphone
families
tamil
corner
decreasing
lw
mohammad
cumulative
disjunction
participation
clausal
optimiz
principal
tokenized
contiguous
##tr
pruned
divid
mined
etre
117
vertical
objectives
verse
partic
phon
jun
converse
assessed
sha
played
formulate
auc
che
rameters
##rp
nonterminals
resp
##nal
peut
134
scales
mart
##ow
##21
df
runtime
locative
tionary
additive
abstraction
##als
##tt
erated
probabil
neare
priors
vast
rooted
pronominal
ok
notable
##lo
chan
pubmed
uncertain
##ferring
stopping
wilson
inheritance
icml
assistance
isolation
yahoo
disjoint
##mm
bits
##text
ec
hypothesized
rush
ended
ya
retained
dur
differentiate
dialogs
adjusted
dependence
ally
notations
ngram
uments
spa
##per
guided
##sh
suc
dale
##wa
phological
##han
roots
decode
##ious
card
happen
fillers
adjuncts
nmod
colour
zu
##parser
summariz
strate
ld
theoretic
logs
copula
spy
fluent
106
##fers
##nce
award
factorization
shop
mum
##ru
highlights
##marily
ilarity
grapheme
individually
instrument
progressive
holding
positional
yan
idiom
mented
provement
##set
tities
gildea
wizard
grishman
vietnamese
consortium
heterogeneous
reliably
mooney
overfitting
std
visit
curran
productive
swer
lat
pression
joachims
##ite
island
genitive
121
nition
fitting
contribut
headed
##nl
smoothed
perfectly
900
phonemic
boxes
pdt
gether
mel
organizations
entails
##lly
pare
ted
quent
bus
gories
eds
numero
berg
ker
reporting
##land
tur
##dy
attempted
millions
affix
append
##mes
successive
instantiation
elicit
typ
##ref
evident
##den
draft
metal
##par
##pt
centering
wordnets
##ors
safe
percentages
drops
caus
suite
512
matsumoto
agenda
ea
disam
rewriting
death
promise
1976
1973
elaboration
grammaticality
0001
missed
automat
relates
1969
determination
validated
fear
ural
recommendations
undergo
ular
kens
nice
stacked
hal
disagreements
hop
talking
costly
##anau
vided
summa
aver
133
bot
til
caption
yesterday
cj
viewpoint
imply
camera
quences
cg
culture
##48
print
continues
mil
109
haji
##leading
tei
linearly
malt
ply
vague
iwslt
january
facebook
schwartz
kanji
sigir
satisfaction
backoff
readily
absent
refine
##ez
antonym
finished
hierarchies
parametric
semantique
visible
credit
categorical
subtle
organisation
concise
tdt
prune
tru
ryan
mars
demon
joy
ord
parents
171
vbn
genia
nm
implementations
175
penalize
watch
los
mere
lay
138
tistical
tical
trials
substrings
insufficient
measurements
ditional
anaphors
opera
##ord
##ture
don
ext
achiev
ual
cepts
recommendation
reflexive
##hua
demo
cm
worker
partner
charge
rapid
discriminate
sms
outper
135
straight
chomsky
stolcke
navigli
fellbaum
spectrum
jeffrey
unclear
companies
strube
quasi
heavy
scott
conver
hearst
descent
baroni
persian
cbow
preserving
transduction
predicative
verified
nips
decompose
skewed
pronounced
iaa
timeml
##ig
enriched
readable
supply
105
bind
##stein
kevi
operating
picked
animate
developers
generality
tts
ship
##lm
##99
linguist
##ier
yosh
west
jin
folds
##od
behave
propositional
pascal
qe
negatives
acquir
fb
exceptions
ered
io
opti
bution
answered
sures
##used
norms
131
enc
outline
cb
factual
terminologic
separat
ilar
participle
nent
app
submit
##tes
hr
determiners
##obj
gl
combi
fiction
##ik
periods
korea
dent
tended
radical
briscoe
gurevych
vocabularies
private
eisner
parentheses
interrogative
satisfactory
brazil
nakov
phonology
inspection
##870
bou
maximization
college
lemmatized
tomatic
uima
negated
1974
##ag
xiao
##board
minimiz
tang
erate
nnp
ds
incrementally
116
fier
dong
##class
resort
##based
marian
700
prepare
##part
474
tutor
maximiz
graduate
og
141
arrive
whom
automati
pendent
frameworks
cont
vv
##ya
##cu
maxi
allen
##so
amples
sentations
outcomes
scenes
guarantee
exercise
tradition
examination
campaign
##ang
thousand
subgraph
subword
presupposition
lexeme
brand
ur
bob
suggestion
menu
pause
contempora
##sequently
alleviate
##ja
incor
191
##ek
button
locally
inner
equivalents
diagonal
fect
dem
considerations
owl
##ought
mf
masculine
mccarthy
brought
nominative
adjacency
bionlp
unrelated
msr
planned
vbz
slavic
luong
emoticon
updating
##tu
sts
causality
instantiated
contradiction
manipulation
ltag
depict
italy
queue
##chi
sifier
bas
typological
symbolic
##ati
dress
##taining
imposed
uniformly
friends
xl
##men
permits
acronyms
keys
sister
pauses
sigmo
sake
locate
##sian
tomas
harm
scribe
defini
bj
host
##nmt
leverag
diff
cv
hid
associates
alternation
##tz
globally
demonstrat
believes
identifiers
vx
prone
hd
tiger
##shi
##ell
tre
centroid
rhyme
workflow
108
listener
explanations
playing
gates
dir
##sibility
yao
jing
163
erg
protect
113
##ern
careful
flight
##nf
hobb
succeed
matthew
transitivity
maltparser
ontonotes
ant
irony
anything
pointed
cant
croatian
automatique
henceforth
stimuli
perceptual
parame
panel
disambiguating
western
ries
felt
segmenter
restrictive
saved
extensively
ministr
lig
##escu
supplement
sbj
weather
tones
descend
born
##zi
lexemes
114
kay
told
quote
##came
##max
tex
inappropriate
teachers
ids
##while
102
proceeds
enabled
players
impose
115
##ay
jim
164
modular
##mo
nel
insertions
152
forums
endings
collaboration
river
diction
algebra
factoid
##lan
continuation
ance
sens
##und
mes
querying
steven
fernand
ste
##coupled
vsm
concatenat
lattices
tel
detec
phrasing
philip
lexica
puted
schmid
america
grand
mir
##ani
##ffrey
orthogonal
taylor
feminine
princeton
discontinuous
gibbs
quick
noah
residual
satisfies
ther
newstest
hinton
ablation
synonymous
foster
birth
morning
acceptance
chemical
radio
pain
intransitive
assistant
gp
##kowski
gies
quotation
publishing
causative
finance
reuse
appli
posted
driving
enforce
1972
eliminated
compatibility
hill
decreased
utze
tailed
periment
cmu
sm
raters
imagine
pad
plots
partners
notators
##ld
spite
boosting
rus
iff
hyponyms
unk
##wn
pub
intonation
##2014
specia
quant
##tl
dialectal
hai
regards
breaks
tp
auf
scfg
citations
meme
sag
fore
termes
bunsetsu
##ology
recommend
segmenting
formulae
listing
##bo
emoji
sepa
assert
acronym
polar
elle
includin
movies
arrow
shifting
##keeping
bigge
##cao
ren
##test
##end
newspapers
holder
song
inde
deem
##categorized
##only
lowed
reli
230
shelf
ourselves
shieber
feng
lavie
politics
sadness
euro
chicago
morgan
elra
clarin
govern
competing
multiplication
snli
semcor
branches
svo
deriva
east
downloaded
lemon
height
##ok
went
conjunct
nw
axioms
concatenate
maintained
sity
projections
##clic
vocab
tempo
diag
alternations
##ach
videos
##86
##ship
phones
staff
##using
operates
schemas
mouse
cus
ui
dy
ngrams
writ
distinctive
##mar
1971
construc
##ini
entail
##med
roman
nombre
proteins
formalize
controls
##name
permit
cheap
grows
144
123
statisti
mated
##odalida
##2015
advice
neighborhood
doctor
grad
##87
ahead
coref
judgement
predi
##looked
transformer
pps
##ev
eg
interpreter
decid
rights
##bi
conversa
rization
hier
##fer
##cette
prepo
##structured
extrinsic
cop
february
ntcir
tied
hook
solver
sn
licence
ritter
lewis
governor
positively
competence
biology
whatever
langue
dynamically
discount
summer
hans
prototypical
matical
scription
unify
tailor
worlds
alpha
chair
sgd
rand
##pl
specifie
ul
poss
funding
carlo
mas
##ide
##ura
coda
removes
pointer
inflect
denotation
##ducing
specifical
influences
opment
cles
##eval
partitions
gb
reads
hm
comput
master
161
126
door
accessed
##cat
lexically
inconsistent
480
cording
register
##ternational
duplicate
recogni
particu
##2016
##ko
transport
usages
offset
singleton
ss
scalar
##000
generalizations
oppose
harmoni
pear
resent
skill
remember
##ore
pedersen
joseph
temperature
libraries
liwc
facility
underspecified
unannotated
engage
confused
evidential
php
advp
security
infrequent
publishers
devise
locality
136
container
killed
harris
##sson
reality
interpretable
opin
completeness
throw
trieval
170
irregular
nov
signif
quired
hyphen
##gb
jian
trix
cognates
velopment
zi
bels
##ham
sidered
##ud
conc
patrick
intentions
corefer
deletions
159
lrs
bell
uv
math
##cr
imbalance
##96
tract
##ents
##23
beat
meetings
geographic
5000
gre
cludes
##cy
plicit
counterpart
demonstration
sad
cam
cold
stores
ratios
lau
jia
bing
rosen
reorder
mb
mitigate
lets
##ith
finish
resemble
encounter
hter
lawrence
clarify
necessity
supplied
##berg
surprisal
spo
okay
parallelism
barrier
webber
197
interpolated
1968
##istic
174
isolated
accomplished
sic
inconsistencies
infinite
assum
copies
sri
focuse
##ana
illustrat
till
articulation
court
qi
##las
173
logue
fra
##tm
greg
##yk
179
##bank
##neser
daum
shifts
peak
##fs
biases
sport
##ality
genetic
expanding
##ski
skills
dump
245
geographical
ues
phr
fake
tice
pb
websites
reduc
bracket
oth
pun
speci
178
communications
advanc
render
ago
lems
recur
tom
approx
flag
possess
fruit
drawback
permutation
signature
consumer
##100
tives
##je
anna
transcript
##88
##erjee
##ker
segmen
punc
119
corporate
brain
##not
##cal
slu
weka
##rosz
lb
univer
005
124
155
194
##case
convention
convenient
catch
ijcnlp
norwegian
pennsylvania
nonetheless
discharge
verlag
copyright
unrestricted
polarities
reciprocal
sweden
covariance
sekine
tiedemann
europe
typology
diagnosis
keyboard
dramatically
cle
spurious
defense
austin
feeling
regularities
153
nltk
sentiwordnet
destination
traversal
##with
peer
resultats
proto
recommended
goodman
indonesian
initiated
donnees
##rg
michel
compile
executed
##psycholinguistic
wolf
texas
confirmation
aggregated
odds
regional
prac
dim
custom
sol
notions
induc
268
gazetteers
deci
classifications
147
rhs
kumar
compensate
communicate
ferences
##ung
searched
specializ
donc
pca
proving
kill
triggered
fw
##fe
##reas
dow
relu
chase
wong
father
bare
appropriately
xp
##su
##ring
univ
gory
spam
ib
emails
sit
indexes
structed
peng
relie
##ned
declare
##2013
##ummy
##gh
pic
tenses
questionnaire
protocol
strat
pressure
##66
014
predication
frontier
ppdb
proce
gazetteer
epoch
hp
dos
tagsets
borrow
jump
strengths
##ends
##ible
scan
chunker
arm
catalog
geometric
riloff
brevity
obligatory
finkel
mpqa
unicode
wan
unexpected
capitalization
november
brants
unsuper
methodologies
eduard
distractor
dominance
pai
##wood
hereafter
popularity
underlined
##ica
intervening
biological
asia
graphic
edward
ff
crawled
rapidly
selective
stemmer
guaranteed
omission
##ber
severe
gument
iments
procedural
combinator
quest
associative
spect
##75
##feng
atoms
viny
conveyed
literally
checker
identifi
chamber
vn
##labeled
##news
egories
digit
lh
chu
pervised
1500
behaviors
##35
204
##serves
201
cycles
depart
##annotation
touch
weeks
cy
jonath
consequences
matters
koo
reviewed
##ran
tan
calcu
211
lap
stimul
diseases
lsi
timing
swap
##ason
##log
commu
315
##ft
adjoin
##ea
channels
pertain
karl
##ze
inflections
impression
demonstrative
sult
massive
dimen
alternate
##tiple
assertion
baker
intervention
paral
abc
matically
disagree
bulgaria
##rote
conservative
rob
sil
conjunctiv
poetry
##hat
ireland
prevalent
kaplan
portugal
quantities
economy
clarification
santos
unmarked
execute
ndcg
keller
iraq
reduplication
moens
industry
marc
inquiry
ery
demographic
tractable
zipf
romance
parole
preferable
bination
medline
accompany
zone
forests
convex
rithms
dean
157
justified
ross
closure
accusative
didate
minister
atten
constants
stopwords
roger
kbp
equality
##rn
organism
##ill
industri
##84
tracks
181
##lp
##ella
thesauri
ye
##sk
330
##fin
##sent
##len
sara
heart
quently
mad
lesk
partitioning
mesh
##gt
##sp
##neffe
nations
monoton
semanti
lution
repetitions
zheng
thors
drawing
ponents
##lar
meyer
hurt
##mb
10000
unusual
##commons
avoided
ice
band
dedicate
fro
compil
mae
iter
##tra
ory
475
doubt
##ga
gerund
usable
indepen
##ional
165
rf
##af
supersense
direc
architec
classifie
bounds
timeline
humor
mai
meal
pronunciations
184
anchors
dative
rationale
decade
##ser
pv
450
skew
race
stacking
dictio
town
malay
confident
##insi
xxx
symposium
genuine
military
schabes
exclusive
opportunity
nenkova
assessments
sidner
sighan
exemplifie
implied
rigid
##ab
clarke
attract
##eanu
roberto
friendly
disk
decay
estimator
arranged
reranker
190
attractive
living
spring
sensitivity
hypernymy
py
evaluators
likes
bp
eliminat
masc
##85
oil
kar
##lda
struction
nificantly
listen
tenth
episodes
ls
ric
##ep
##aghigh
154
##sc
quotes
jective
tern
quan
stops
##ves
stefan
##22
1967
listeners
##bc
##characterization
##eux
##tional
dou
##inger
cities
inverted
claimed
##oc
incident
spond
indo
flex
breaking
attitudes
coders
debates
rock
atis
talks
singer
177
inspect
107
vm
hw
paradigmatic
ily
tiers
##lic
alt
pressed
accomplish
objet
prompts
196
bic
198
tx
cws
rewards
timent
kath
plac
delet
chung
vis
##90
susan
bn
axiom
cations
rs
##ics
aside
admit
resentations
##ates
311
landmark
mountain
audience
xia
budget
violation
circle
tj
##use
archi
sang
judg
dependen
disorder
gpu
gence
australia
lift
lei
exten
distribute
passing
eas
##ida
plete
003
simultaneous
chest
139
##var
television
dublin
tempeval
roukos
pierre
philosophy
israel
commerce
estonian
mg
stevenson
kyung
uppercase
depression
fillmore
modi
reconstruction
netherlands
mathematics
earthquake
katz
187
ind
quadratic
opposition
qualities
capitalized
incorporation
convenience
compilation
tha
acting
tutorial
diffi
themes
timebank
preprocessed
lambda
turkers
bikel
functor
clarity
lose
mesure
valeur
votes
naturalness
##fa
figurative
specif
sequentially
monte
descriptors
##68
parti
ranker
##ses
domly
counterparts
duction
structur
mixing
beta
gan
plate
poten
fle
averages
ini
148
export
summ
##46
flights
esl
##ano
fox
##base
entered
##ken
posit
ax
rg
##ans
analys
##24
cnns
3000
sel
mle
provements
215
333
149
##mn
decod
455
stein
##comp
za
156
xin
permet
translates
##how
##wards
##uc
##cnn
fits
reiter
uma
overt
dynamics
nominals
002
colors
##notated
dice
collec
aj
lg
puts
sitions
effi
cient
##tha
converge
4000
tering
##80
##94
##ari
prerequisite
##tory
##take
sleep
researcher
friend
tential
ia
##ining
addressee
##paired
crease
##pposed
168
ont
remote
jk
steve
162
ensur
scikit
facilities
kyoto
vogel
disfluency
monday
freedom
hospital
167
recursion
prev
preparation
clinton
avenue
treetagger
srilm
concreteness
gradually
purity
homogeneous
schemata
irish
binarization
drink
yih
##dd
schedule
linkage
collective
clir
246
itera
tak
reordered
happened
sensible
inversion
uttered
proportions
modifies
sous
engagement
vu
commission
##nu
nique
recognizes
interviews
identifica
compiler
224
##body
operational
plexity
alias
contingenc
centric
supertags
approche
biguation
experiences
##hyun
mantics
acknowledgement
##ws
##dro
##65
leur
yuan
actors
twel
versity
reinforce
##ml
digits
concluded
ungrammatical
multiply
organiz
pn
##belnet
burst
premises
bien
preced
##ova
##verb
propagate
ror
hol
208
kn
158
fish
##38
frag
alexandr
ferred
fun
negations
wood
consis
turing
##ui
font
alogue
teach
gross
kenne
plant
shed
neces
##ford
mike
pragmatics
lingua
##yer
sue
roc
254
txt
reorderings
danger
##69
diagnostic
streams
benjamin
supertag
descriptor
recipe
wp
episode
browser
hypothe
nels
reaction
allocation
364
##sg
##ency
ix
nam
##trained
##iv
allel
sponse
##com
##uli
##34
quantifie
##lich
205
contrasts
sebastian
partici
ara
monotonic
234
normaliz
##ju
blunsom
daelemans
hockenmaier
griffiths
poesio
elhadad
bakeoff
pitler
unchanged
summarisation
schank
swiss
goldwater
radev
apache
kuhn
supplementary
coreferential
calculus
thresh
deceptive
quirk
durme
criticism
sorry
england
cherry
degradation
488
accommodate
speculation
zhai
rescoring
coreferent
sorts
##89
normalised
blood
recruit
informatics
commentary
tight
lus
nuclear
##po
mains
nf
stability
##56
##op
lacking
croft
##top
witten
carl
bbn
##phrase
remarks
pack
pet
visited
oper
graves
##score
nificant
ambiguation
tutoring
christ
##layer
triplets
sal
disorders
##tively
219
fective
assertions
vidual
signatures
lexicalization
nec
coordinat
##field
##akim
##ess
shar
hands
wrongly
1960
demands
introduc
##data
pected
202
cleaning
##mos
conditioning
##93
animals
cen
ros
dition
incoming
syllabic
optimizer
127
tributes
##bility
##ug
cz
opening
pending
ary
tire
uu
simulat
##fessor
##sala
oppos
##60
##rk
asymmetric
##subj
crawl
##ram
##ii
yoav
##45
##une
logarithm
##fl
323
schematic
260
##ovsky
375
##ice
gar
##rich
doesn
##ism
larly
192
249
uw
ape
##lon
##coming
gh
bake
surname
phd
##rb
regulation
artifact
connotation
494
##40
334
violate
dish
inductive
docs
cro
470
pho
##can
disambigua
cog
resourced
cult
##town
syl
ponent
coco
analyser
hat
fulfill
correla
fait
generaliz
especi
hear
ponzetto
eisenstein
singapore
srivas
rambow
affinity
supertagging
elsewhere
gordon
diego
pacific
bioinformatics
uc
harry
wilks
057
##tava
mercer
nearby
noticeable
afterwards
floor
awareness
upp
predominant
nents
insensitive
colleagues
transliterated
continu
238
alessan
club
1965
formality
nun
parison
courses
scarce
inherently
conjecture
lisbo
fisher
numerals
320
innovation
##sl
exploitation
pect
231
symptoms
nicola
##ially
dark
##db
orth
decades
morphs
dashe
tonal
firm
##min
##ei
357
alan
berger
##ables
ping
continued
eva
lv
lui
delta
mw
016
antonyms
ham
##alized
272
guarantees
approxi
##cock
microblog
217
##tially
subsections
dorr
seeking
##43
visually
comple
agr
trie
didates
deploy
280
228
outer
individ
##hz
rameter
##erry
interpre
rough
##bert
##76
swers
pm
mask
ici
routine
copying
ht
edus
##78
predefine
363
stud
req
##space
137
sons
resented
quire
spot
##97
synt
##ert
##arily
##wan
243
itg
##ji
252
defi
thinking
desire
platforms
msd
pinyin
triangle
shapes
augmentation
autoencoder
prince
bible
enhancement
minute
subsequence
vl
dcs
illus
poster
julia
psycho
ously
##directly
donne
feat
headline
consult
##rant
profit
sage
##39
166
hierar
franc
qua
winter
thorough
##ene
triplet
forces
grefenstette
karttunen
korhonen
teufel
zettlemoyer
chodorow
montague
pyramid
cantonese
friday
taxonomies
prominence
holistic
colorado
drastically
unreliable
hardware
cardinality
xiong
unaligned
normalisation
colon
hub
cslm
bpe
cepstr
reproduce
weaknesses
enrichment
hypothetical
ils
relaxation
detector
465
directory
salim
mirror
lowercase
tfs
reserved
observable
governed
occupation
humanities
recipient
aw
mediated
bounding
slower
ts
assump
ging
lucene
495
species
saving
semble
##vides
vital
numer
sds
##ita
##els
hearing
boyd
reversed
summarizer
driver
cky
ordinal
beij
repairs
facet
##pressed
god
tioned
##36
##old
drawbacks
characteriz
baum
anyone
ly
##tool
##links
minus
attribut
bon
302
##lla
varia
discriminator
lhs
258
fell
##wer
sto
anderson
compari
intel
daughters
angle
353
nyt
##26
eos
sheet
325
##constrained
##29
096
293
cand
bart
scf
##nescu
225
antoni
reductions
drugs
bilin
termine
##bl
director
burn
132
ances
tention
##era
gun
rele
shorten
dividual
produc
520
compara
185
##tc
sell
210
onset
oral
282
interests
fiers
356
142
italic
investi
mn
##77
sents
sou
##ado
213
pictures
licens
##ix
plex
##ided
johans
realizations
##duces
voiced
overlaps
##search
dozen
##older
##ada
lai
disgust
presum
computations
999
benchmarks
spirit
##rr
tomatically
skeleton
##ments
negotiation
227
beer
vt
hyperparameter
adult
contour
##graph
subclass
hair
mari
750
neighbour
##42
286
surveys
stative
270
rics
poem
kr
carries
enhanc
yo
delay
275
##rising
origi
tection
straint
hz
characteris
interac
dry
rences
##trans
##speech
jelinek
sanskrit
hirschberg
ratnaparkhi
interlocutor
schwenk
plausibility
dredze
tsujii
metaphoric
eurowordnet
etzioni
riedel
egyptian
productivity
downstream
unnecessary
everything
launch
faculty
kilgarri
acceptability
possession
negatively
weibo
carreras
discrepancy
sagae
jack
amsterdam
rewritten
257
manu
loosely
stephan
eleven
outlier
##wi
combinatorial
aggressive
sgaard
termination
##2008
clef
##rf
ironic
recovery
rbf
portable
##oo
trip
activated
lisp
damage
ppmi
bomb
methodological
surround
hen
perl
substituted
cites
313
realisation
##47
##59
ess
institutions
diacritics
creasing
subtract
##path
sloven
chin
partitioned
whil
josh
newman
quarter
sitional
visualize
233
usability
simon
practically
election
hole
approximated
occ
federal
##ean
conjuncts
perf
hops
##num
##ren
confi
##sta
woods
##erely
balti
arab
derstanding
morphologi
contextually
substitutes
pref
metamap
151
cluded
desc
exemplar
lectures
##79
nv
fei
##cm
##ively
##ider
wsi
bod
adjp
leg
343
von
decoders
pact
adverbials
segmenta
fred
wil
traffic
webpage
phil
substitut
execut
##uvent
##27
hiero
##ara
##dic
##berry
##37
effec
universe
jeff
aries
##off
lll
prod
deviations
239
johan
251
attn
copes
mira
##ip
dash
slav
comb
221
##mu
drs
investigations
##nts
fang
ize
noting
##fr
squares
rection
004
degrade
##74
209
inten
validat
sor
vehicle
spellings
medication
172
ancestor
garden
slope
328
euclid
##radhan
##its
##thy
serial
stone
mani
crime
dd
##eu
cats
##yn
clip
ses
boot
bf
explores
xx
##49
rui
182
fonction
rms
barcelona
epistemic
harabagiu
katakana
tetreault
weischedel
illinois
privacy
bohnet
icassp
raymond
citizen
negligible
yellow
physician
blitzer
roark
optimum
dropping
cooperative
err
invite
elided
pbsmt
affairs
unweighted
nantes
traitement
latvian
evoke
proxy
yago
bulk
hin
occasionally
equipment
##ima
schneider
agnostic
cube
104
opinionated
coupling
cohn
managing
hownet
cai
shortcomings
ables
subtitles
emerged
react
##from
markables
plu
equa
scopes
013
##emb
baby
rejection
##2005
##tated
emphasized
researches
##32
lel
hao
##map
proposing
neurons
pothesis
##alph
sourcing
287
214
adults
evi
dominates
desk
ding
unl
mach
gir
##sulting
converges
intensional
permission
eters
tips
169
hui
wor
subsume
##that
247
modelled
subordinat
222
##ways
temp
##ain
##har
harvest
prohibitive
##redefined
outlines
218
##elles
##ens
pects
##tree
subtypes
golden
327
##viously
premier
dure
schedul
288
dicted
308
donald
##date
##ick
erk
266
383
night
sampler
loves
efficac
tun
sensor
existential
##cally
cui
pie
heard
rounds
prim
suffice
bedding
knn
commit
prices
icon
spend
erations
tmp
revisions
##eg
organize
296
communi
placement
timo
306
ray
fn
ware
cars
sorting
##58
interview
##beit
##wordnet
subcat
425
prototypes
slid
025
nie
approximations
##stands
006
##vi
##mberg
discus
537
##olo
visualiz
wind
##km
186
cutoff
tongue
preprocess
jacob
lives
deduction
##dou
encyclopedia
fs
rapport
joan
0000
carls
236
eros
hypoth
mdl
404
pound
ude
gradients
peters
tape
345
diacritic
invariant
durations
suspect
loose
##igger
stituent
##nally
diachroni
itive
inves
##og
nih
hap
jackendoff
baldridge
massachusetts
henderson
javascript
misc
pietra
cyril
oblique
juice
federico
cikm
unordered
yamada
birch
handcraft
laughter
photo
acyclic
##words
pertinent
##rying
precedence
dinner
adjec
kudo
interspeech
intractable
fem
##dong
angeles
litman
portability
altogether
tokyo
louis
davis
rightmost
gaz
physics
taught
connec
niveau
analogical
provision
controversial
unsu
earley
silver
adjoined
trig
favour
##ys
analogously
##pro
exponentially
summed
##sis
tribute
attentive
academy
categorize
yates
##link
sbar
prise
insightful
mak
340
##try
##sumed
emergenc
pendencies
adequately
nathan
rej
##sky
tackled
bm
##famous
brat
imperfect
##gated
oz
weaker
discarding
violations
headlines
##bilistic
##pi
dcg
viz
faces
bur
closing
pling
arrows
systeme
warning
graphics
eling
won
pd
inadequate
sick
432
##bleu
centers
siblings
jl
iob
modest
##jects
pointers
##each
mk
##con
232
utilis
atom
expansions
bilities
gree
coordinates
ming
##ently
como
mous
forecast
229
##inica
765
297
traces
quo
mistake
aforemen
##owing
bined
tgt
nology
scriptions
banks
transferr
bb
##ue
vocal
220
separa
georgia
##dicated
##ks
##53
##73
##abine
##noun
eyes
##lg
##ces
morpholog
##hou
falling
##shot
##hand
gt
##dis
bil
##iti
sea
simplifications
sight
zhong
ion
electronics
##agent
##vel
355
832
##cker
307
##packed
header
212
controll
438
recognizers
##lc
ploit
cps
narratives
bol
341
##eme
professor
silence
ambi
##llo
dots
disadvantage
mecha
snippet
ow
invalid
nominalization
trump
##gi
contex
brook
clitic
##des
hyp
ali
tory
##arg
##del
byte
##lab
orderings
ensembles
294
wf
##82
concat
ingly
della
##ever
lcfrs
config
qg
analytical
heuris
murphy
arithmetic
liquid
snapshot
sydney
passonneau
##500
pollard
himself
politeness
transparent
ccgbank
continuum
biparti
hansard
excit
collapse
dautre
graham
striking
minimization
bordes
celex
rain
browsing
multiplicative
515
manifest
plotted
novelty
faruqui
drift
init
richness
299
##hood
trav
arquez
misleading
1964
elimination
conv
localization
tea
standardization
earth
##new
african
gmm
brian
255
utf
laws
toefl
grey
settle
tiny
##atory
bolt
persuasive
##idaf
##ise
attributive
##nen
##query
sennrich
predictable
shef
370
tension
##structed
plication
devi
380
marily
loca
luo
jas
merit
248
458
loaded
ages
veloped
mrf
troduced
##ata
erties
providers
##2010
rada
442
discriminat
ports
##lstm
naming
422
lish
##bt
##bu
tai
doug
fung
347
##eev
pull
##sum
svr
stressed
##uk
##hmm
kristin
616
float
fixes
556
phe
##57
llr
##terested
322
##omez
yoon
primitives
##ilya
319
temps
commons
attaching
postulate
hierarchically
chap
##questions
adapta
kor
implemen
##tp
481
plications
394
archives
414
honorific
mild
##tically
##che
bor
##nes
failures
386
203
remained
boys
restaurants
ej
##imum
##33
##ode
410
lis
##ings
523
prepar
176
deka
christo
359
sages
##iel
gro
##ake
trouble
encoders
llo
##br
444
sharp
calling
motivations
##forge
614
499
evaluati
appro
##tributed
shin
espe
dam
devote
##ins
466
##54
tered
boll
hwa
##glu
laugh
emb
hypergraph
enjoy
attr
463
008
receiv
nugget
winner
bug
punct
rerank
nest
spac
chitecture
vinc
bundle
##hen
##sociated
426
cooper
symptom
##elle
##abe
dramatic
officer
##loze
extractions
alterna
slash
loan
spective
sarcas
schapire
stuttgart
kawahara
heidelberg
mandatory
sigkdd
disfluencies
calzolari
fleiss
heafield
dissertation
museum
breakdown
explanatory
burden
watson
scalability
maryland
accommodation
francais
analogies
lopez
walde
tendencies
qatar
situated
walter
legitimate
inventories
incompatible
englishgerman
prc
rodr
ukwac
417
salton
kitchen
royal
barry
francisco
sgns
serbian
syntaxique
army
populated
od
originate
collapsed
tibet
systran
pute
reviewer
contributors
gupta
imdb
tbl
reddit
topology
slowly
universit
musical
diagnose
terminologies
bins
##eur
circumstances
pk
301
jacc
enforced
zip
pushed
discipline
silva
producer
ww
summariza
lib
strengthen
resultant
##erman
ipa
subse
slang
unc
spelled
hel
associat
nuggets
flu
cabulary
retraining
207
machinery
season
founded
subsequences
##guez
batches
icantly
dmr
minimized
suffi
##non
maybe
terances
tk
probabl
##meier
demonstrations
##leen
reused
##eng
237
tural
ppr
##precedes
##person
352
577
todd
gard
##tor
##nary
instruments
useless
##att
##language
##dar
denis
barbar
dg
##gina
290
manipulate
mbr
226
rr
escape
egale
fault
rq
bush
cussed
242
##ratio
permett
382
##ria
structions
gpe
nlm
cri
cela
##enko
schwa
##ao
hua
clos
##cient
horn
yor
ployed
303
practices
francis
evenly
##bench
ration
478
##utton
602
inherit
coun
squad
stick
435
becom
399
sever
dj
##mitted
yin
scor
xy
wit
##owski
nrc
temporally
urgen
##way
223
pcfgs
532
giv
compromise
trait
traum
enumerate
als
experimentally
preposi
mos
cla
maintenan
afore
tip
mixtures
ry
asp
421
mag
icd
720
##uch
235
##ified
##eren
##acc
##ose
##opoulos
thom
##vp
sie
##frame
bottleneck
recherche
451
schools
tradeoff
##crf
clique
pens
scl
weir
sky
sponsor
programmer
840
hood
accompanie
scholar
tified
##jan
##kova
261
##rray
intersect
intelli
implication
ppl
##anu
##aring
##kin
tracker
phonotactic
porter
analyzers
440
##alo
265
##ora
virus
enormous
stoyanov
telugu
winograd
denominator
kondrak
opportunities
backbone
salakhutdinov
vancouver
violence
arousal
mcrae
seattle
sproat
473
copenhag
southern
teraction
ldoce
ronald
abney
syllabification
abeill
sgml
shannon
companion
altlex
czeng
ijcai
lazy
neous
pedro
mfcc
handbook
iclr
chief
connectivity
infobox
486
regulariz
graff
trois
hello
476
conjoined
morris
##plsa
truck
aircraft
shaded
qualia
##amma
dinu
##2017
publish
rater
interpreta
dominating
##wani
reddy
resolver
tightly
linearization
volunteers
topological
rasp
dolan
630
evoked
agentive
adp
##ification
misses
decline
598
glf
eager
deng
telic
encod
developer
correc
summation
dominate
printed
hdp
##ph
genom
##ile
obligation
##rule
gul
rendering
abundant
creased
fuji
##64
lots
##code
188
349
poems
##latest
username
tt
189
vii
resultative
accented
captioning
germanet
pears
##rmed
benjamins
434
##fst
dop
##ries
dang
designer
lesson
##scii
compounding
station
utt
##rmore
pwn
plementation
contra
sho
langues
attest
commonsens
duplicates
tales
emojis
lic
subgraphs
exercises
kana
##nual
searchers
situa
instantiations
##port
ticles
ami
vant
tempt
389
sumo
biguous
overly
tentative
ning
thi
holders
joe
parties
##966
elan
tators
##onnie
642
lmf
acters
##jo
anneal
plane
283
gest
524
compete
##kins
331
interrupt
afin
fsa
pap
grades
kit
addresse
jon
tache
probabili
uti
##my
bread
##interoperability
377
390
##hai
##book
021
ln
vj
regu
lon
##where
##serving
shu
338
ficient
grounds
rol
syntactical
543
216
mization
diab
##wick
819
##lemma
nia
348
563
albert
ica
tam
erik
labeler
##eb
converte
416
electric
##desc
##amura
soit
deft
ron
bach
gal
nag
xsl
276
##worthy
expense
578
##ven
263
concentrat
##ney
documented
sato
##ties
precondition
religion
derivative
artist
investment
487
weiss
genes
disc
##ku
alarm
stru
hypo
generators
##van
amt
appreciate
slice
ortho
##ona
transfor
405
667
mimic
atlant
autre
##ql
facilitat
tecture
566
##tle
appropri
resolu
agarwal
ghahramani
srinivas
strapparava
kurohashi
michigan
dumais
opaque
udpipe
pittsburgh
lexicography
pretty
lid
nallap
mcclosky
colloquial
friedman
turkey
administration
greece
marriage
elec
optimisation
traduction
divergent
510
coercion
nagao
bosch
hoang
graber
begun
lunch
kenneth
sist
summit
lav
undefined
flickr
substi
equiva
##ravind
tionship
accessibility
subcorpus
btec
##action
hon
disjunctive
interjection
##tation
989
involvement
molecul
##wei
##61
neigh
nmf
##ets
drew
pixel
pot
featur
instantiate
exclusion
understandable
coord
regularize
surgeon
lvcs
everyone
duplicated
trading
console
ceaf
##ef
automation
entailed
##mail
elliptic
mouth
##chen
inhibit
genus
registered
wine
mult
mln
crawling
650
384
##52
scholars
memo
casual
splitter
soup
headings
lake
nominalizations
travail
sales
##acy
implementa
italics
trol
329
fixation
plore
wheel
298
sumption
priate
trick
bibliographic
jou
compte
646
protocols
##evant
##ational
inaccurate
ified
645
browse
claudi
emerg
##tw
436
psy
maximized
##slav
nar
##system
centage
creases
##def
rooth
ually
spr
##naka
agreements
parameterize
walking
qin
ack
dk
wild
nach
hoste
refinements
##post
rived
bat
kg
hoo
optical
diminish
624
wc
intentional
unbound
composi
##du
iran
##vo
sume
336
conflicts
##quires
jr
##wiki
659
##like
321
integra
pipelines
##win
editions
ov
284
indic
##zadeh
commas
597
##tioned
patents
integers
##merging
junction
774
tit
2500
propriate
bond
490
enumerat
uncover
##sm
vijay
##shaw
apres
plement
hopeful
##some
##sing
maries
##model
klau
ume
##ron
pairing
eats
##ndirected
issued
qian
##joined
meng
complet
svc
algorithmic
taxonomic
regres
337
1024
651
##rated
apples
647
fortunatel
262
intuitions
akin
ride
##ques
pei
627
tings
uate
sex
compl
##rnn
stars
##lesch
##2002
empiri
objec
##zens
simul
essen
coher
448
ticket
efl
ido
880
namic
joel
##elli
##has
instant
420
nate
##ico
jane
retweet
laptop
rap
margar
adjustment
540
liste
##ues
ith
compli
labor
gray
substance
shah
sociolinguistic
sublanguage
developments
orange
abbreviat
##ew
dcl
rooms
431
cup
##ify
453
isa
925
358
ze
279
##isting
zo
##ium
##xiang
weigh
arbor
wolfgang
heritage
scrambling
animacy
shriberg
envisage
geometry
libsvm
biemann
creativity
conse
cinema
unacceptable
denmark
manchester
crisis
arbitrarily
crammer
switzerland
exposure
eugene
hahn
thirteen
workload
istanbul
nepal
##active
conclud
fasttext
functionalities
brother
lenge
deployment
elicitation
meurers
szeged
syntagmatic
federation
mainland
monz
kirk
1957
justify
limsi
admitted
dmv
zeman
sandra
secret
pomdp
routing
robin
sandhi
permitted
synthesized
623
engineered
inconsistency
farsi
351
exposed
dollars
attained
ncms
nikola
reache
460
843
montreal
emerge
assemble
reproduced
analyst
ploy
conjugation
##web
amta
duplication
learnability
recognised
doctoral
dahl
1963
achievement
##stream
enumeration
replicate
specialization
##amese
586
hassan
ravi
574
schmidt
singh
inspiration
marginally
formalization
odd
lob
strategic
caller
##2012
ek
bruce
puter
taln
killing
640
##hart
forget
neighbours
##inal
vin
285
novels
557
artifacts
thor
strand
tok
cesses
saur
##iff
##wl
grading
grave
497
##sides
cancel
rem
interchange
permutations
516
zhi
##2009
657
##adj
stituents
##ipei
##fu
vbp
increment
solu
lisa
447
562
conceptually
tableau
199
diese
sify
##verbal
entailments
##tch
ridge
365
iobj
##scribes
015
generalise
isolate
038
beling
644
compos
normaliza
##aining
intu
deserve
401
jobs
##match
flick
316
374
workshops
discern
##ota
##91
rectifie
445
deliberate
##forward
swe
867
pip
541
usu
customers
idiosyncra
iphone
581
spar
##sem
landau
guments
371
outgo
##xt
lier
lam
339
409
rad
transduc
366
##rely
sary
##bler
rice
servers
walks
opens
##nver
rom
##41
schult
446
converter
referenced
##sisted
flagg
##bmt
calculations
tails
##44
379
fight
xiang
crowdsourc
defaults
##definitely
sq
taro
bags
vosse
indica
reich
727
gm
206
decl
cantly
##ace
##tre
vas
rev
authoring
quantifi
388
##hl
485
basili
lion
subcategoris
536
##urs
##rds
speeches
bars
presuppose
##combines
##eurs
institution
ich
##62
##volving
367
rn
uated
##ub
observer
fm
journalist
292
##ple
vg
244
bottle
##318
swim
gorithms
supertagger
##ike
cadre
placeholder
ought
cooccurrence
ambigu
guideline
categoriz
environ
sce
clc
##usable
profil
catego
arrangement
expr
ppi
numeral
560
spine
communica
era
429
typi
##ela
retrain
ceo
constitut
##mentioned
frequen
incorpo
fois
tradi
situational
disregard
##cos
civil
equiv
vmwe
693
##rate
cated
cardinal
buchholz
gaizau
oconnor
santorini
steyvers
suzuki
saggion
hofmann
credibility
happiness
superficial
nilsson
sauce
infinitival
subjunctive
kendall
barack
impractical
parenthesis
ravichandran
unlexicalized
kenlm
funny
shrink
denero
haddow
koller
unspecified
reliance
neuron
hirschman
beauti
fraser
kaufmann
soroa
inanimate
angry
392
monologue
unavailable
meronymy
eps
adaboost
hindle
##term
congress
simlex
abortion
neglected
climate
dex
glossary
slovenian
sect
deverbal
bowman
narration
praat
022
reversal
misspellings
kiro
sno
interlingual
550
##moto
hyperlinks
grasp
phonetically
evolved
1958
##ola
luke
wfst
bonus
accomplishment
leader
unla
postpositions
regles
xcomp
alternating
airport
vbg
lorsqu
painting
equipp
formatting
##tte
formedness
##tributional
##terior
homonym
cet
newsgroups
montr
overhead
effet
mantically
clitics
677
aussi
regularizer
cafe
aggre
618
ria
marization
##92
dencies
711
deictic
kin
acoustics
513
##tan
##eva
breath
htm
888
ete
439
selector
puzzle
wol
corporation
454
##tailed
##yp
sequent
##skas
guid
344
456
##ln
timelines
##tiev
007
recognise
bols
kbs
sein
##length
dissimilar
##pared
797
##pham
##ographic
nasal
obl
youth
##200
##composing
cultures
void
##70
lime
926
evaluator
puns
690
##met
lag
galle
transi
hou
processors
adap
div
##head
##work
##ellen
tiv
##side
pants
gay
survive
sid
klemen
##learn
weeds
satis
##abular
##fo
encodings
acter
burg
cao
483
8000
018
rao
wont
dar
##lay
eating
732
lexicographic
rately
tomato
##dist
277
477
##enberg
schu
632
observa
buck
cuis
846
##ulary
ations
ound
##patrick
856
divergences
pmod
quil
qc
469
facto
encompass
241
swn
hasan
gil
dsl
##prob
479
317
jej
##hara
024
253
matt
faci
prasa
##dm
kw
rei
368
##soft
654
##cheva
##ont
##63
##location
##67
781
jour
631
vocabu
468
##ami
430
011
concordance
recurr
##arc
428
mv
##tinuous
195
delimit
persuade
722
##81
icate
yy
heb
outil
eve
dicate
663
hk
193
drt
departure
759
mtl
llu
##mment
notic
males
coach
oovs
expects
magazine
498
kla
apposition
tau
transcriber
##ciated
rational
##two
anne
bak
tourist
emission
empir
309
kiss
nonlinear
gc
restor
virtu
tecedent
pal
alon
471
441
boldface
coincide
plug
rial
rigorous
bucket
611
clm
##ib
777
ori
criticize
##353
harvard
voorhees
zampieri
osborne
schlangen
wednesday
krahmer
shutova
curriculum
expe
liblinear
football
ghosh
littman
unfamiliar
backpropagation
agencies
compliant
sofia
egypt
entertainment
verbmobil
worthwhile
hardmeier
frozen
thirty
seldom
preservation
memories
concession
rhythm
quran
trajectory
ere
decipherment
interlingua
267
deception
causation
approval
680
differentiable
illness
advantageous
crosslingual
distin
comparability
281
studio
oepen
multitask
autonomous
suboptimal
breast
centrality
stroke
somebody
monde
stuff
1955
gapping
peripheral
confusing
accumulated
scanning
subclasses
leech
##psg
karen
conjunc
possessor
lkb
turian
antonymy
792
vilar
thin
enumerated
wife
##ila
mismatches
seriously
taste
ressources
lucia
565
scientists
textrank
559
grice
isbn
australian
storm
##eering
weld
vqa
inferior
lst
464
analytics
##lett
toolkits
contradict
declaration
evans
evert
tification
typographical
advisor
mei
##sy
persist
##ade
648
##acker
culate
merits
nism
834
concretely
lenges
318
269
synsem
##sch
##adi
273
514
bfgs
pounds
1951
initiate
feet
##mpa
opus
kish
778
cyclic
revise
matthie
clock
surpasse
##ovska
singletons
brew
tin
guessing
nai
border
940
##task
kamp
centroids
slide
949
dna
542
campaigns
##mon
911
calend
relaxe
259
424
travers
parable
##mmy
##tem
robustly
634
##2003
specialist
mistaken
ish
mission
##hr
dh
curs
##galore
replacements
##jectivity
investiga
ada
metonymic
ships
strained
##yama
ave
resume
395
504
tokenize
##ensemble
833
invoke
terpretation
##otted
##1000
didn
528
594
##cd
##inf
##interpretability
tect
lates
cord
respects
tracting
corrupt
ios
##corpus
##act
scorer
##ternal
##sense
tobi
shell
##mita
928
##big
ditions
icons
##cg
anatom
groupings
deed
##morph
##dge
629
rected
##ivity
##ichi
kdd
pace
##incent
ceived
dictions
675
mwu
cir
##oid
bears
##roid
adhere
paint
##mer
415
##creative
neo
metonym
alia
suppress
vation
588
##tis
fortunate
779
argm
rome
595
merges
taskar
syst
viewing
bre
spann
589
ew
gg
527
amb
cgn
reso
simplex
describ
##bauer
717
558
cou
interacts
veale
##izes
dance
##segmented
##rov
kang
engl
curr
997
##rin
291
ewn
745
stract
##user
labs
ehr
summarise
##iol
726
gran
costa
glue
##ants
smo
##gu
##align
canadi
gcn
inv
##roy
621
##55
ern
shal
grain
medi
popes
903
pf
##itting
integr
##sts
believ
##uni
278
planar
##tude
slovak
maxim
matcher
929
pw
dedicat
##dijk
perfective
dial
534
lip
chatbot
acknowledgment
simile
rapp
748
dictionnaire
justification
prose
clair
6000
deg
beach
affiliation
637
infection
individu
frequence
pra
##cb
classe
patr
sche
inevitabl
africa
##bin
behav
connector
choisi
##tal
thoughts
appeal
dra
##guchi
009
830
weps
navigate
620
occasion
443
##ator
pursue
buckwalter
carenini
lithuanian
riezler
hawaii
repositories
hyperplane
kalchbren
marathi
stockholm
rosenfeld
auxiliaries
carbonell
quinlan
soccer
standalone
heilman
bandwidth
unbiased
gibson
disclosure
explosion
guidance
scatter
radiology
waveform
mexico
oflazer
bibliography
tagalog
galicia
lakoff
overlapped
elastic
ahmed
melamed
senior
stopped
mitkov
visualisation
universities
wilcoxon
delexicalized
qualify
##bel
regressor
consumption
academia
tedious
separable
harmony
replies
bruni
katrin
nancy
assembly
backend
bers
489
wat
handwriting
punjabi
flip
worldwide
controller
##ass
plurality
metarules
stede
mnemonic
##instance
borrowing
sib
hunter
byrne
severely
freeling
inspected
conveniently
warm
##level
folk
smell
bike
hom
hinrichs
longman
violated
faq
appealing
##plored
employees
potheses
nnlm
opened
assessors
terance
invoked
surgical
tigate
hanks
bmc
##kind
optimiza
enforc
miner
prof
##order
evok
flower
motor
fern
##yu
blstm
lung
##mente
lady
##ped
fidence
guesses
ruled
##common
sketches
##wd
juan
analysts
linearity
inefficient
remarkabl
cake
##bs
852
sensors
##info
310
613
332
essary
contin
aut
accompani
cohesive
engineers
laughs
homogeneit
penaliz
##kel
##een
032
seeming
kle
##linguistic
xpath
treelet
luk
pobj
385
##2007
orthographical
perceiv
ooo
retrained
provider
plur
facets
termined
volved
miles
leveraged
nuance
##nilla
625
sov
##dos
mcc
audiences
colin
decoded
plank
##aw
journals
organis
##zhe
sir
remarkable
arpa
555
tele
dii
##here
monolin
pbm
656
##mir
moon
realizer
textes
activate
admissi
brent
pant
##span
swering
bles
convolu
##ncy
apartment
experimentation
944
losing
509
esp
remind
rections
nez
goto
conceive
183
gio
##jong
graphically
trains
579
##nard
418
cooking
391
735
##ult
##object
437
755
propo
859
610
525
##root
malized
##iz
jie
##gn
##nar
egory
headwords
##yz
1200
rounding
##pcompl
factory
tinguish
mile
believed
##ication
arabi
tectogrammatic
457
tens
inition
trast
arrays
mails
580
452
ring
attacks
kara
##bj
markedly
exchanges
##71
nin
492
dbn
orga
tackl
##mal
733
nos
tributions
##alley
failing
mds
923
epi
idence
deduce
penning
ities
suits
##tb
popovi
sifiers
##ux
julie
##train
sepp
aids
esis
##ize
##aa
##allester
mce
clicks
770
xf
dtd
shang
klu
telling
467
##ducted
homograph
529
427
pirical
##ball
wb
hum
289
##iago
initiatives
482
seul
restric
az
ak
346
fc
fresh
trouve
bench
362
ratin
882
proximate
dnn
##sentential
##nnie
##yys
customize
518
##av
##mainv
##uster
arts
evidenced
behaviours
cit
uri
##any
##prop
626
sus
generat
gang
authentic
roberts
roz
054
##syn
##dep
##pool
##smith
tes
493
etape
cdc
multilin
535
arguing
dogs
aida
tivity
echo
636
accelerate
947
571
poll
tale
##nected
partof
alexandre
offering
systemes
activations
gradi
##lli
789
##ye
prag
calcul
surpass
litera
vel
spoke
elder
##aron
##oi
watan
inflec
hei
wrap
##cas
gam
##tio
##ax
cds
718
##vs
901
alg
734
aggregat
##dg
305
##31
phylogen
parliament
##tar
remark
tary
oooo
feder
xing
distinc
brad
##atively
pla
082
mic
##poral
decom
poli
samuel
552
324
specifier
linguistique
botto
reformulation
const
posteriors
##hip
##oll
bull
bulletin
laid
bala
##gm
958
usp
heat
wrt
literals
##acao
regime
roll
engineer
##tagged
271
anton
kare
ah
obser
617
prt
roy
compa
##ependant
575
##posed
agt
repetitive
anxiety
bresnan
carpenter
crowdflower
gabrilovich
isomorphic
vanderwende
dickinson
fellowship
maccartney
nineteen
ueffing
obstacle
tensorflow
callhome
laboratories
transparency
bateman
columbia
bioscope
enterprise
legislation
olivier
warren
epenthesis
undergraduate
commoncrawl
lazari
icelandic
ohio
##itor
lanalyse
safety
lenient
plagiarism
susceptible
gauge
hakka
yelp
duffy
lemmatised
magerman
##directed
yeah
wikidata
forthcoming
geograph
subcorpora
classroom
langid
strike
influential
acoustique
hoffmann
administrative
##mc
histories
umass
village
situ
anto
resampling
redun
approved
finger
##ences
riley
maniere
skipped
entirety
##prep
earlie
configured
689
crite
spouse
alphabetic
cca
viii
sebastiani
rmrs
quiz
obey
explor
woz
cru
curation
##ditionally
adoption
circuit
uller
silent
##str
lexicographers
hesitations
manipulated
##ext
##chak
propor
1962
prioritize
potts
decompos
##illa
mukh
conferences
##gli
cest
payment
ineffective
blum
manifestation
syria
##vis
ficult
##yakan
saint
extractiv
abuse
mus
strip
sonder
ltd
694
quantitatively
havior
vpcs
setups
employment
dering
excessive
638
exceptional
##ect
grass
##tracted
##distinguishable
consulting
plugg
##uki
bunt
mensions
kate
dsm
minne
pcnn
restore
553
retweets
reservation
transforms
unbalance
spin
tate
boosted
fran
##ht
technolo
img
ticipants
sumit
##fred
ancestors
dcu
generaliza
##ight
discrepanc
robotic
548
inherits
volution
fever
oct
##pre
techni
##oping
landmarks
561
342
hinder
##cp
comprehen
545
701
721
nario
iterate
dunn
iwn
915
##back
kau
pku
zones
graf
igt
##ane
deb
mada
callan
bw
offsets
799
miya
850
jection
icant
hamm
sponses
376
workflows
dently
partie
027
participles
grammati
030
revis
symmetriz
optimis
truncate
feb
organi
##jun
rais
##2011
##labelled
crowdsource
routes
leib
##2000
poi
##cab
##tk
##tly
ijk
##chical
nord
##llen
##uis
423
##zmi
rephrase
633
lors
ivan
##information
jectives
comprehend
484
avoir
##ama
farm
proceeding
contribu
conn
048
peu
county
lowe
childes
nets
voc
683
headache
tected
myc
##weight
##lexical
ctc
##forms
942
##his
announce
robots
zhen
##utes
sla
##bow
413
649
fift
##resents
dime
reset
##partly
vert
796
stricted
##tured
##ciently
##value
losses
##ava
##urism
sold
logarithmic
##lle
timization
existed
kp
reflection
luis
lary
bra
##cular
subevent
##neous
##syllabic
hinge
subdivide
died
voic
modif
responsibilit
distill
517
897
##ility
pean
nyu
##size
##herited
bern
sexual
cek
##bound
phi
397
##after
##acity
##page
guer
744
voter
sistent
pado
ict
783
grande
749
##dependencies
sac
##nte
##written
speaks
sda
sourced
angeli
##oada
dal
##voiced
personalize
373
419
889
##lance
##room
accident
etude
1301
climb
##reachable
873
kea
##standard
##uses
coordinations
##saka
ita
ims
704
##ault
haber
879
deposit
##relli
rio
het
wai
realise
##let
pros
##structure
chor
kru
sonal
##sion
##dl
bytes
asher
peculiar
cuts
refuse
1961
sera
asymptotic
ppos
##spec
mats
##tors
alphabets
ocean
iu
tsve
##ben
##ides
hierarchi
##agging
##scale
speedup
hyperedge
stamp
##tics
colloca
manuscript
472
simpli
victim
scientist
appositive
subtopic
catalogue
investigates
semiring
##vised
broke
amplitude
591
vers
enclose
chai
generalisation
stopword
nurse
substan
##lis
lfs
##care
rhetoric
laf
publisher
horse
montre
levant
gps
pneumonia
guides
##gie
##tkov
##iii
phenom
##rej
790
cused
protest
760
##atrice
probabilis
##illian
contest
##ori
intellectual
transaction
valida
##rage
##ient
trac
asynchronous
androutsopoulos
belgium
budapest
cunningham
disturb
dysarthri
nowadays
langlais
fidelity
graehl
ostendorf
recasens
smadja
terrorism
zaidan
miscellaneous
keystroke
penalties
fifteen
hulden
intelligibility
uszkoreit
toronto
speculative
appraisal
carletta
unidirectional
florida
mohri
societies
unpublished
dispersion
kaggle
sinhala
rumel
synchronization
knife
chicken
battery
perplexities
nugues
successor
rubber
parenthetical
xavier
volitional
brennan
relevancy
chairman
sarkar
recency
mallet
impersonal
timbl
exclamation
nonzero
vagueness
confusable
crude
celle
milliseconds
nuclearity
impressive
linux
alongside
balancing
notwithstanding
turbo
devtest
beforehand
jensen
subcategory
harper
chronological
informativeness
##scribed
lengthening
salt
wallace
fruitful
##sler
multiclass
eagles
pipe
calibration
neuter
##oplasm
narayanan
locuteur
btg
mturk
respondents
1948
continually
sumita
closeness
687
optimised
instrumental
prize
radar
aliases
percy
thumb
pursued
505
865
ftb
pin
##idade
phillips
congruent
xmg
optimality
populate
faire
specifiques
bov
026
##tta
lyrics
##oglou
polite
zeng
troll
elegant
rubin
##ldi
npi
commitments
acquisi
lobe
hc
rival
somewhere
cedure
aaaa
automate
mech
vardial
succeeded
followers
kos
836
##esley
embodie
textbooks
malta
substructures
portance
burger
thereof
collocates
743
triphones
cefr
descendants
treelstm
loanword
##izer
atb
wright
boxer
bust
##ichiro
hedging
##rni
realised
atlas
##ville
ciency
fundamentally
specialists
murder
consume
malization
realiser
##sible
ontol
guesser
##air
iis
stra
679
##ena
274
jud
viewers
408
disadvantages
scfs
bac
ameri
informally
warn
imdi
jar
ljube
##ouri
mikh
takers
##ste
##dium
confront
fried
esse
rumour
tres
christiane
##ino
##ebmt
erc
instruc
713
wj
gim
mans
overfit
##role
902
linguistica
639
circles
##gai
##tested
##caster
methode
pretation
ency
##reutz
weaken
##lv
locat
##lies
871
attachments
culated
modifiee
980
registers
infectio
observes
##self
sugges
##3112
887
csr
snr
tractor
jos
loud
##sr
496
terface
##ros
##dr
##tas
complicate
674
##inning
buttons
lished
pasca
bates
##ric
scha
experimen
855
##erous
qq
hsu
plates
##nover
##sche
725
twin
succession
##olonne
##viding
traverse
diver
regularly
arguabl
compositions
##ison
edi
mori
##ras
simone
##enburg
sina
segmental
768
##zio
017
##ines
##ccard
diagrams
396
customiz
rid
491
##ceived
794
##curring
1900
##2006
mentary
##pu
801
gin
##2004
loading
##hagen
892
##tivity
leve
erally
marine
067
##oped
bernard
806
sant
netic
##onic
populations
952
fas
##oersma
participa
##volves
ili
##best
convo
juri
##kn
##ando
##mond
##nli
576
infl
predefin
bei
gis
translit
guish
alm
##dict
##ddresses
##dom
##ular
##fal
purchase
multipli
##rox
##111
jc
uct
599
querie
modifica
660
mona
803
quanti
stacks
cite
antho
411
sprout
chop
609
merri
iment
##001
##72
cmc
comps
eqn
954
critic
lx
punctua
monosyllab
trail
##flow
sand
collocate
convince
805
fir
picks
hoff
##ique
vit
jenn
##ltag
##ested
##property
anchoring
##rec
##hu
##rent
##ees
766
johann
407
##spread
934
gone
premiere
vps
##sub
##defined
608
##iveness
fax
sar
##house
##etting
gai
marti
684
##ime
393
dave
##utilisation
absorb
##unch
##rain
informant
##plied
ule
##war
##ury
##ude
twit
generous
643
##105
lsp
##sive
pump
inclu
qr
##ech
##xe
##ures
##lana
lauren
tall
ferr
mana
##bal
##ialized
dub
860
##dir
beck
elling
##ah
ality
linda
##enji
071
nmi
hide
762
bine
subscript
luc
raj
minal
##ree
##yi
bbc
##oli
508
795
##chart
expresse
jenni
coor
##pc
##iro
##place
revolution
##int
584
kun
redirect
cuss
adjudication
##gressive
798
##nomena
subjec
soma
##etic
downward
sujet
triphone
terminate
greate
circumstance
explo
descendant
grim
upward
subspace
massim
configura
herein
##relation
flect
greeting
568
##ond
098
migu
quelle
termin
##himoto
829
infant
661
proposi
liber
scoping
sieve
invit
##dia
##child
estima
gas
coordi
dant
682
slovenia
abandon
specialise
vince
787
wonder
tec
refl
gradual
hamburg
markable
subord
##astern
sporleder
szpakowicz
tsarfaty
ubuntu
widdows
boguraev
kallmeyer
lascarides
elixir
madamira
kessler
lemmatisation
domingos
citeseer
uchimoto
grandparent
coffee
telescope
suicide
bureau
chemistry
oregon
youtube
inkpen
magnini
thailand
undesirable
scholarship
baidu
gabriel
kullback
mehdad
hamilton
simaan
eugenio
persuasion
russell
halliday
marquez
nagata
chelba
chapman
moyenne
organisers
mccord
grammaire
granger
##javik
automatiquement
identities
blackwell
disabled
searle
concentration
occupies
scanne
bacteria
labour
postag
inequality
dissimilarity
pole
chrf
ident
910
hayes
advertising
scarc
ski
modularity
simulator
misspell
##yang
upc
rieser
##deau
rcv
pend
chaining
ranlp
reyk
siegel
negri
overwhelming
postprocessing
invaluable
progression
preprocessor
cliff
stsg
531
technological
hajic
imag
mctag
thoroughly
unsurprising
advan
sweet
queen
lik
biber
wealth
dating
slt
delayed
iron
##hur
consulted
anticipate
mihai
reparand
entites
eckert
fulfilled
uniqueness
nan
communicating
##lr
##feasible
delivery
##kar
supra
instruct
organise
thick
wird
noises
duchi
rogets
lowercased
heuristically
simplistic
aloud
discrimina
containment
3104
quencies
blame
sional
clever
munity
figurations
timestamps
marsi
abl
##ital
qiu
##perimental
##verted
terminates
assoc
nologies
seat
marcell
sharon
##cation
fal
framing
585
710
bracketed
burges
##operation
ternative
technol
847
arrived
pedre
prd
deductive
clini
##cher
##gr
liter
johannes
mcs
ari
derivatives
dai
mdp
kono
ellis
fabric
stm
xuan
##lem
recast
resolvers
concerne
institutional
cuni
stts
nev
eli
##lie
voir
##erty
wordforms
stab
paraphras
##esday
590
742
autoencoders
agement
wire
microblogs
dsms
ticle
mont
candidats
##qg
1950
##amon
##ngye
demanding
happening
kann
petr
##training
drss
sustain
knp
caps
bro
##label
blow
exter
tony
estate
highway
fruits
rationales
devia
lod
##uer
scal
##bjectivity
solicit
##there
##light
neighborhoods
songs
successes
##yan
shou
cuk
radicals
interpreters
ptm
pink
philosophica
##kens
##topic
presuppositions
estab
ott
872
nell
cel
tsg
vance
##ires
909
sing
##pert
dras
##oa
brun
texte
wordform
##ering
##itman
berto
nite
vpc
##ugh
1945
##bes
focal
islands
termi
##cia
##tus
973
##munt
##main
promotion
afp
##cor
##400
vantage
imize
##cessive
kld
##ature
##lite
##variate
infinitives
abstracting
jor
accumulate
##ising
tunisia
bul
cx
shuffle
582
dents
moreno
invention
pst
ficial
proceeded
qp
lieve
##ale
##lf
reserve
564
carne
816
simulations
##sung
clay
##atos
nicul
yun
##rat
prima
wff
fects
koch
##network
##fectiveness
##enstein
##you
##good
dept
##pper
040
interlinear
colloc
##key
optimise
##inki
bergs
##ayen
jn
veroni
863
composes
mrd
619
sequently
##plicitly
##ives
acqui
927
##tagger
kart
alteration
invest
edr
##iques
ssl
##hn
##source
##mple
erative
dead
flo
lite
##ending
##ende
modifi
enlarge
sues
884
demonstra
grab
aaa
appl
lsh
wikipedias
605
finder
##ifies
facing
females
387
372
##ough
573
cnp
cance
##iu
tiveness
uous
##witz
893
owner
##tsumu
##xi
##tai
provid
##toshi
##ihuan
anova
allan
lou
parameteriz
gatt
##inter
##position
##char
##ainen
manipulat
minorit
723
919
699
csc
##semantic
taku
bidi
agrees
688
554
distort
copi
revealing
##index
708
nao
##ordinate
##force
appar
##det
##ear
628
##kawa
##reyer
lord
atteste
disconnect
experiencer
kon
##aid
increas
##penn
influ
714
ceptual
suppl
##erez
702
##entering
discrimi
margins
506
312
conjugate
551
expl
965
dle
970
##nlg
##ackstr
##uri
##oth
##itted
##tropy
inclusive
terest
##exp
##lat
snap
ee
cable
bert
correspon
ssc
##lotta
khan
719
mula
bene
concatena
521
##tant
lamb
zou
##oes
vali
652
##ius
##target
stag
phys
discovers
##oni
presidenti
##which
complexes
loper
hopes
##onneau
dian
misclassifi
##anwen
##ators
emoti
transcrip
cipher
##lice
526
shoot
cau
resemblance
venture
tinct
disaster
mammal
extensional
##doc
stemm
##gru
editorial
portugues
ingredient
complaint
krippendorff
##low
##dan
##prendre
linguisti
wm
subtitle
##nominal
##ded
ret
ups
analytic
practi
substructure
##985
weapon
timestamp
cream
threat
eter
textbook
unfold
cnr
corp
858
selections
##eko
afford
##ficiency
354
886
669
manuals
862
993
icl
##sil
##delta
##ubic
russia
brid
fergus
mediate
cussion
occasional
wals
eigen
##azza
horizon
##ederik
genabith
guillaum
heavyrhyme
kuhlmann
rappoport
skantze
soderland
thursday
alcohol
flemish
soviet
brockett
cyberbullying
vapnik
scotland
kingsbury
mellish
florian
pcedt
incidence
portrait
garcia
zesch
islrn
fluid
lookahead
austria
poisson
herself
cahill
humour
diacritization
seneff
terrorist
appointment
nombank
weikum
dozat
tonelli
kent
farkas
durative
rudnicky
supp
692
schuler
exemplify
retrofitting
rnnlm
oslo
continuity
mohamed
geometrical
finland
sahlgren
testsuite
unlimited
hungary
metagrammar
swahili
##ater
pearl
comparably
indispensable
##ska
subcategories
sinha
geneva
codebook
notorious
jurgens
monotonically
##sburg
ensem
superscript
rigau
enclos
binomial
customization
repub
##rod
fastest
lationship
nomenclature
axel
certificate
winnow
cotter
nt
conceptnet
args
shanker
abandoned
philippine
plugin
contingent
shtml
hardest
##nova
battle
thereafter
anticipated
communicator
cilin
fluctuation
sacks
2493
sap
piano
valley
824
insurance
expletive
backtracking
carter
1954
traversed
milk
reranked
jokes
maximis
rbmt
##osis
weinberg
romanization
atala
charts
nized
meaningless
comlex
upload
climbing
019
roche
##qu
franco
ergative
convincing
signment
917
##niadou
backchannels
creat
##nih
disappears
tilingual
zong
interruptions
304
speculate
##aiming
uations
yong
modals
rie
433
gregor
reverb
885
mmr
wl
##meyer
typos
##extraction
756
641
gation
##uan
gor
ql
381
sne
allowance
707
##rman
##gested
jsd
socio
stabler
cloth
infants
victims
lenging
kick
projec
sess
babelf
##ferential
endanger
delimiter
##alizing
reprint
borders
593
##rom
335
bender
ih
pouvo
flowers
##sys
##bar
subc
wave
biguity
naka
flags
curry
yann
665
##yce
gonzale
tle
indiana
leaders
782
subcategoriz
neck
gression
saurus
dura
##sumption
grammat
groupe
963
874
glossed
##gg
approximat
lss
priming
monosem
married
plent
##quoi
domaine
jrc
crawler
executive
degrades
subsumes
syntaxiques
acti
beau
955
jose
20000
nichola
courage
kupie
golf
slm
manuelle
##lation
simil
recipes
maj
multiset
maximise
cry
tickets
##vid
drivers
trips
json
##ains
corn
predicat
victor
##smt
pala
wal
adaptations
##have
axes
056
##core
supersenses
scr
plemented
402
##aj
##other
##document
facilitated
##ink
feelings
878
oder
hosts
nerc
##svm
pushing
##illon
##aku
##reating
##tner
peers
##opped
interleave
esa
##ados
##iner
projet
##propagated
riv
rhymes
meval
##hler
emphasiz
regret
dirt
disrupt
##ky
stair
revisit
preferential
headers
##2537
idation
digitize
##ition
sai
##ijing
##rkar
menus
jen
install
segmenters
cide
##schutz
cessed
857
distinguishe
##ali
##arity
##state
788
##peng
whi
##wu
##hp
optimally
##esse
competitions
##healthy
simplifie
underline
professionals
filipi
termed
##ars
arriv
backgrounds
paste
bone
nas
##terpreted
adagra
##eq
295
##409
sny
yue
##hawi
##ced
1100
0000000
empire
yeh
522
formative
dumm
968
bots
forme
concert
mire
optimizations
##gl
##ography
##edin
##group
pval
##pes
enlarg
cst
##niz
grund
bright
kol
946
##rates
844
tank
kid
juni
marginals
santa
##lion
offs
powers
evening
##123
##erence
approached
quun
##bedded
##face
rk
##ages
una
##elman
pile
carol
demp
##these
##iden
666
approxima
##ming
cow
neuman
##llip
ccm
punctuations
511
temporar
##lock
##pen
854
markets
cea
likeli
##hm
761
definitive
##ili
715
categoris
consolidate
##olution
orientations
ferra
clo
##car
503
shame
##igan
031
johns
bloom
ultra
##das
permissi
049
gill
##butional
##pra
skipp
nz
nick
violat
##ware
reform
foreground
brenda
##3119
##hashi
##iling
presentations
378
##king
pisa
participates
extensi
kat
461
eliza
ens
##din
##jj
##aker
wordsim
recision
hh
packages
equi
##wj
##monte
817
spc
liberal
##ock
bmm
##wh
##ined
cock
laplac
birds
blend
##formed
##adapt
##haus
449
##2018
develops
##quel
misuse
##split
fabi
lef
innovati
##bury
intervene
amir
##tex
guy
##esh
sanders
lock
##zer
radi
##voice
tut
cfl
cnl
##nship
flict
##isclassification
shao
postposition
##lik
tao
masa
bg
logics
ena
##eau
##oh
icates
##lbert
##isk
662
zeros
##jala
##ged
sami
nk
##dt
gine
calm
##rily
aa
affirm
827
739
##translation
fic
chy
##ader
triangula
impos
##izi
pls
endorse
disappear
##anis
scp
##nya
spl
##fips
##ujo
evolve
organ
##ome
mpi
984
##140
696
gers
georgi
##ira
damp
serv
synchronic
scien
697
faut
tough
arity
cis
519
ian
ein
villa
864
##qing
currence
##1543
fam
prover
fut
dell
fee
547
gramm
isolat
sul
870
##anek
urn
ell
##view
lapp
percep
668
813
##865
copie
##rst
##malized
##lit
507
probleme
##zed
honor
implicature
sind
jiao
eigenvector
predecessor
complementizer
##ected
##kl
negex
interruption
novice
ressource
##but
promi
oracles
shortcoming
tokeniz
smile
##erhard
stant
##erent
459
terme
pathway
seule
evan
contraction
##umb
holland
686
ks
ns
##enez
discrim
mutation
discov
906
turker
valencia
tative
##mit
occurence
583
neglect
flatten
786
beneficia
correspondent
voss
##aire
derek
ao
##akis
weakness
explana
brasil
iceland
cabocha
cucerzan
frankfurt
ganitkevi
hatzivas
leipzig
leskovec
plutchik
surveillance
tomorrow
uyghur
almeida
anglais
storytelling
csomai
doddington
husband
quartile
superfluous
wehrli
stymne
apparatus
mccoy
muslim
manifold
embrace
troops
granularities
metropoli
mizil
saarland
zeiler
anomalous
census
glyph
discontinuity
criminal
portray
ethics
pioneer
versley
enemy
geolocation
bohus
greedily
deterioration
bansal
dapprentissage
mathi
moldovan
acceleration
deficiencies
murata
crouch
bicycle
cvpr
scottish
compelling
welcome
sunday
tipsem
britain
distillation
hsieh
radius
latency
flows
plaintext
bilmes
bojan
province
dstc
vaj
contient
tseng
harness
##hwartz
imperfective
seuil
ferrari
violent
unrealistic
levinson
##cora
cuny
taka
mcmc
meronym
encyclopedi
sively
comfortable
preterminal
stretches
standpoint
abso
undertaken
newer
rajpu
livre
peking
055
robertson
motifs
bernstein
ckip
humorous
faithful
enron
inquirer
mellon
carrot
##kiewicz
##lapping
construed
allocated
dfg
requete
##12345
prospects
roller
hillary
strapping
standardize
lk
rappel
##ential
accom
sonable
poland
contexte
chuan
##ctively
ug
poet
lexicalisation
toolbox
sememes
##sundara
##plained
suspected
datum
shifters
seb
##rmation
disambiguator
crl
3250
085
pedagogical
932
protection
vladim
transit
##wester
dvd
bergen
fare
columb
gardent
prov
dawn
childs
locked
enroll
cooperate
##emoving
lowered
533
splice
endpoints
##som
reltype
##hit
##star
freeze
borne
basket
##lapsed
maier
distress
selves
communicated
##czys
misrecognize
conclusive
motivat
republican
infers
cubed
sdp
exceeded
conven
regularity
086
differential
npmi
acknowledged
morphologique
nobel
acteristics
##inkov
architectural
matte
##ward
theatre
diacritiz
evance
intact
nooj
constitu
buckets
pg
flectional
arrest
transcribe
opposing
1412
placeholders
grape
##asq
##rait
correlat
scopal
abstrac
sits
##rrett
##city
bhat
adjustments
illocution
##nica
attain
##vor
troduce
uptake
phonotactics
frog
pleted
progresses
advocate
lexieal
elda
boat
##ind
alto
412
timit
exemplars
dictate
##tin
concep
dq
tachment
##vances
tees
##iser
fonts
ipants
queri
615
minimise
987
absolutely
peaks
docent
sired
promot
##rlbaum
detectors
reasoner
##point
933
##ffects
sacrifice
##lib
maam
##cial
812
vmod
insignificant
toxic
kiel
hug
mountains
##lihood
##lied
allo
teresting
##tel
evenement
khz
obtenue
sohn
demonstratives
upen
presente
##ered
burke
committ
##rey
##uzen
questionnaires
##anced
dv
##onal
zel
anders
##rectional
cool
730
851
denotations
rot
tlinks
deviate
rearrang
fired
##jing
814
niels
helen
##pletely
agation
1080
concurrent
leest
transferre
##kb
ivanov
chip
commun
precedent
charges
transliterate
kri
##riety
##ration
069
612
##ssa
dann
flaw
##lov
viewpoints
auditor
lever
normalise
##icut
helm
##oulli
minh
dct
desir
zation
binariz
##nz
override
angel
vor
accidental
##lig
unnatural
binations
caution
ips
susann
nak
sender
aql
##iller
buch
ccomp
##yo
limita
logues
guist
935
aligners
kev
gec
##sli
dina
cible
##german
jacque
sequenc
spur
##nm
671
731
verifi
hie
##awac
##ym
esta
lamp
wen
proximation
##676
hypothesise
ensured
moti
iz
658
##law
975
diet
nav
consiste
barto
hf
speeds
curate
rbm
yama
##ordination
contr
##ame
##nds
conclu
resistan
repr
francesc
##units
wik
ital
##number
cart
cards
737
collaborate
##hin
xiaod
##wang
xe
##loc
dts
##project
spatio
obvi
compres
##cus
838
dire
relativ
##nent
##nr
inactive
##iles
lute
530
747
funds
tute
##isch
stemme
##112
##eh
considere
##through
##thi
538
chronous
mbl
aff
945
tokenis
##iant
exis
vir
##eta
petitive
icle
prf
##itudinal
easie
alike
##bec
hang
pled
920
##ashish
lol
mative
risks
##rrado
##tted
##bed
785
##739
condense
##translated
##matically
818
00000
pays
coli
nerd
bick
poon
##lia
ixa
604
941
##french
##elve
dass
##jia
truncat
posite
params
##specification
##wal
##bk
proofs
relatives
##asks
facon
##ules
1300
gaussians
propos
##ample
##osity
##cn
odin
transforma
phy
proprietar
ven
809
halt
##ij
milic
##stem
hem
##xy
developmental
##014
lexicale
##arker
##ula
chow
equivalences
##arrival
##kumar
sine
##learner
##sulted
##tags
combiner
828
gue
##lve
##kapi
##llmann
##expert
cul
lcc
##nk
drago
goods
##mily
shake
592
anism
##vocation
##respective
741
apis
767
##600
regle
##ast
intrans
##ista
##inventory
ccc
##pan
##gaard
898
501
##xml
##pus
##personal
transpose
981
measur
overrid
complementation
tuation
##lected
mand
##sets
clink
treme
illustra
##idf
palm
gala
567
shortly
profession
wx
##anqi
042
##tical
##count
lence
##nden
niko
certains
095
##bly
representatives
restart
differentiat
ua
##gra
tnt
deva
versation
##ett
tices
valu
formu
recognis
##pur
023
mwt
fers
mh
skin
trivia
cree
specialis
chil
##anchev
##into
##lsa
smor
rh
##erkan
097
##course
326
##mbr
##identification
soc
##345
##trieved
##lows
##hui
paragra
549
820
791
viet
nitive
vices
##aman
##ido
nad
pourrai
020
##runner
perplex
pou
##cer
vid
539
excess
coin
##down
##gall
realiz
resu
affirmative
cash
este
superlative
weekend
duan
pud
##mas
cohort
753
jst
avatar
abnormal
ctx
##eli
hibit
voyelle
##sequence
kde
backchannel
lend
vf
##lus
##ero
wrapper
criti
##kit
lexique
061
##models
camp
712
differen
tology
basenp
##ats
muse
separator
##rot
lvc
backtrack
terminologie
christoph
personnel
suspicio
barr
mec
eases
##eem
circ
stretch
##zhou
mcr
##erating
wt
pessimist
##mber
##vented
073
##ave
##010
966
hob
##beau
##005
biograph
##uma
stochas
amp
mension
wins
##lb
simultane
kazakh
piotr
bandyopadhyay
farhadi
makhoul
miltsakaki
przepi
rebecca
siddharthan
cochran
holiday
mumbai
marcinkiewicz
suicidal
destroy
afternoon
dementia
metathesaurus
benefactive
feldman
sixteen
unsatisfactory
winston
counsel
implausible
raghavan
saturation
melody
sigdial
bangla
schwarz
trajectories
utilities
contradictory
silber
dissemination
infomap
nouvelle
hmeant
bethard
tolerance
hudson
reynar
unimodal
antigen
deadline
bishop
prevalence
pullum
windowdiff
breiman
altavista
coeffi
alligator
unsuitable
nonmonotonic
remedy
robinson
flavor
paetz
morante
##event
expressivity
tennis
dowty
ritual
unavoidable
compensation
abduction
etiquette
tap
oscar
determinism
lagus
barbier
decomposable
entropies
monotonicity
edmonds
appelt
corruption
anvil
empathy
beranek
macedonian
sail
swbd
acute
00001
leonid
catib
seoul
retention
goldstein
turchi
ekman
isomorphism
sagit
artefact
halves
guard
eventuality
excel
consultant
prevail
stamat
##gorz
reputation
poetic
smyth
administer
navy
lawyer
backup
nik
0473
simard
scrambled
connaissances
politicians
schatz
taglia
950
covington
moh
honey
restructur
qualified
profes
recognizable
morphemic
affixation
ollie
serge
##proves
injured
michal
melt
intri
stood
dictated
banana
constituant
1940
harman
durable
adverse
duty
radu
portal
bandit
reversible
organiza
exemplifi
3781
##was
photographs
supervisor
groen
memm
taneously
cyber
basing
##enable
##thesis
nomenon
conflation
subtracted
submodular
confidently
978
weblogs
matsu
disregarded
finishes
downside
##ges
corners
##oids
##ropean
##hog
##young
##statement
pretend
homepage
##oma
##zu
multilinguality
saif
##iliary
huber
921
competitors
collo
pathos
nii
##evaluation
rumors
creators
typicality
career
##egala
editable
disagreed
inevitable
##nintend
serb
subcategorized
occup
938
ulc
aryan
focussing
lexiques
csv
##ffe
substantive
legislativ
formatted
dit
oren
sswe
yew
smoothly
attended
senate
taneous
krippendorffs
##ories
posture
amen
duck
964
cod
##pedia
homo
subscripts
worry
##uation
degrad
appositives
dnns
generalisations
subst
gift
vw
lemmatizer
896
wishes
successors
brary
hale
umn
tonight
028
dental
haiti
ascend
##sized
835
##ske
erature
frameset
##ucker
awa
beca
tionaries
religio
078
kak
264
aac
##once
##800
exit
sanj
therapy
filippo
##acio
linguistiques
translationese
surge
##node
eo
enu
labeller
schler
koza
##js
dust
##wc
##dec
elman
willing
nasta
visitor
morphol
moran
ately
ester
##rw
tlink
bru
junk
##ridis
##patible
recurrence
##pansion
harsh
larities
presse
agglutinati
consent
fertilit
##ozak
lance
spots
trackers
medial
transliter
##vant
justifie
prevented
silvi
kitt
##rounded
emerges
676
mines
sumptions
barn
mead
norma
##reference
##hem
triangles
erase
overload
728
receiver
##716
marry
cia
surpris
##ucl
atr
##entific
designers
sanja
##estimation
connotations
matsuo
incre
frac
842
prerequisites
##read
##diff
##panded
zag
##jean
alleviat
combat
tionships
interventions
favorabl
diate
tivation
impressions
##ifi
##695
##ait
kir
##999
vestigate
pairings
gilli
anymore
yoga
finetune
##leurs
081
rence
noam
bootstrapp
patron
nd
brin
vocabula
##nani
3111
esting
ordinate
crying
##connected
toute
17718
lyon
paren
seeker
##iki
sluice
hrl
##einem
nication
##nberg
ekb
rico
factoids
munt
continuations
lett
mur
clusion
richards
deteriorate
blocked
kipp
approve
transmitt
sbp
##rew
##note
guest
chong
shots
ft
gothen
cameras
versati
##ail
##aya
acid
##pair
##ien
altering
##long
853
##ority
##lobert
chines
hoped
##cut
821
##kom
##sity
dms
jv
##ob
##aggio
##card
##cha
distributive
malma
890
posting
876
rama
##oy
abstractions
##rsten
jay
belis
##ging
##211
lum
##mpel
velar
stripp
bhu
##afa
##rado
##own
##national
boards
##zione
doub
educa
soul
bha
standardiz
klav
eventual
mnb
peo
curred
articulator
cump
welt
##tropical
indef
managers
##sification
neuro
##ctive
050
pursu
recon
##uksa
nucle
##lexicon
prohibit
##aka
palo
##pinc
porate
lightly
kawa
##classifier
lif
##ule
##ulated
##267
smok
liver
##itz
1532
##mr
agi
deny
nombreu
confu
##ummer
##fun
forgetting
##ery
explic
wie
849
##berman
democrati
hotels
fd
sation
mse
##hal
##row
908
adams
##vin
shui
##spanish
somme
efit
punish
##noted
##tton
gx
##terms
##itis
figura
ris
democrac
1865
##guage
verbos
##rani
merger
##esi
##rently
##next
##stone
##rest
pretrain
psl
gius
tensed
772
##ign
##fp
compet
##tv
actant
mia
ncs
##lenci
arrives
hyperbol
##put
##xp
##ask
##asi
carte
fuse
prom
##iya
##owl
##chieving
blanc
bernardi
##linear
##986
##ingma
ky
cwi
##iting
syntaxe
##cho
hunt
dicting
mized
ethical
361
acoustical
##liver
ahn
##elsner
##pointing
##spired
##plate
babel
606
rij
##aps
##eman
lra
##udi
##drid
confuse
##uality
kh
##356
rache
cremental
##onen
marize
roh
zp
##azione
yale
rou
##2111
slip
subsum
imagene
##xlink
##eppe
flan
##ost
kurt
asker
cede
869
##box
kur
connu
##entry
##spell
wash
607
##rim
##ppl
596
##matic
##moving
intents
##integral
clp
##aria
##shui
##gradient
imper
mature
sequen
##hari
994
designat
preparat
##fined
##start
popu
lq
ende
##centric
lct
mrt
sentenc
##247
##mining
bodi
##animal
##sse
##rv
refin
bay
##freq
shaw
##czyn
oi
objection
stereotype
724
metonymi
##owicz
jeon
vr
nomi
tronic
##stat
disparit
##vgp
formaliz
gol
##300
backwards
emit
multiplie
stitution
relati
##rai
##270
reconcile
##ters
incom
##nai
possibil
##mulated
invert
##gin
622
##wanted
intl
caractere
crash
##yuan
aka
zhangs
601
##rick
ulation
duct
maxima
qx
phra
##dmr
ego
##ewski
##swam
##abilistic
sdr
924
denois
yj
2400
##yner
lappin
constructive
##zh
descr
witness
##201
##sidering
glen
##sco
hara
intersec
owns
timate
822
sich
butions
explorer
encourag
sof
accumulat
ception
##ute
kora
oot
putation
##grams
similari
##polis
##precision
warrant
##198
equat
075
##ound
##bodies
regis
##sla
060
##eft
likelihoods
bryan
rior
origins
strictl
##party
cita
incremen
quatr
##ooking
localisation
respected
046
subreddit
syndrome
endeavor
joachim
wildcard
##craft
##nthal
##plified
hinrich
commitment
##archy
newsgroup
concate
ledge
gsa
lucy
ensembl
rumor
roget
802
##mor
mathe
##sation
lars
transcrib
##rus
##ucci
fou
creator
subpart
##lines
crit
655
##referring
##ase
ebl
anony
sst
iq
personne
attrib
alta
##anna
dfs
1016
superse
##fused
income
narayan
psychiatr
ager
employee
islam
steel
##quaint
protagonist
apoptosis
borovets
definiendum
glasgow
grenoble
hadamard
khudanpur
malouf
mexican
prabhakar
saturday
sigmorphon
tibshirani
tremendous
wilensky
wisconsin
bhattacharyya
gruyter
zweigenbaum
guthrie
municipali
ubingen
cautious
lightrhyme
spreadsheet
velocity
spaghet
wilbur
toulmin
cristianini
collados
elsevier
pennebaker
verbatim
gutenberg
craven
leisure
dimitri
gaelic
mimno
manandhar
wagner
wavelet
asahara
densities
offensive
pleasure
responsiveness
autism
fourteen
bernhard
scherer
wacky
unedited
schroeder
kingdom
developpement
undesired
higgin
diffusion
hamza
isabelle
ditransitive
pleonas
birthday
arnold
palestinian
friendship
dordrecht
gonzalo
mongolian
boiler
festival
percentile
stephanie
martinez
mcnemar
biographies
felice
emerson
sagot
honni
rubric
sojka
malaka
lehmann
disabilities
druid
pulman
potato
tigri
tabulation
tarau
tumor
suspense
journalism
tillmann
kot
ncfs
synops
pronun
muller
subsequential
##faced
elliot
hendrick
subsampling
domestic
heaven
nvidia
orphan
2020
musician
nomination
coincidence
reduplicated
trabalho
laborious
##gf
grze
interplay
sale
eamt
perspec
lagrang
walton
courant
appreciation
etymological
generalizable
universidad
depiction
kulka
destruction
welsh
##context
habit
recombination
palavra
overgeneration
gregory
identifiable
supplies
stylometr
optima
stoplist
registration
determinization
critique
assimilation
abhi
assertive
evgeniy
initialise
faith
lasso
psychologists
airplane
rescue
borin
claws
alexan
announcement
caught
liao
argtype
tiguous
pizza
kicked
sugar
##nde
ceiling
assessor
boltz
quential
choudh
yvon
sharply
prevention
##ccg
lvcsr
consultation
##rql
supplier
syntagme
definable
symmetrical
obtenus
regulated
belz
rosso
unnormaliz
barwise
tho
inferencing
booth
fdp
hiroy
848
intensifiers
marton
succ
davidson
gomez
adjectif
beginners
suspicion
chess
armand
##nno
computable
decoupled
##tama
fringe
skips
codings
katha
timized
recom
##iness
subgoals
ernment
##sai
##analysis
lynn
##constructed
quadruples
cortes
hhmm
cxn
546
admission
farther
jena
##ato
proximal
jirs
correspondingly
empha
formants
subcategoriza
cleft
xquery
chased
qlf
dauer
ascertain
##tter
##aching
##cri
taxon
uid
698
zw
desu
ttm
facil
##pierce
zoom
synthesize
cogni
mwts
mutations
enlg
tailment
##amento
##added
capitalize
cleaner
nections
satisfi
steinberg
ramon
##160
804
collaboratively
ukb
##aga
ehrs
corolla
ecg
regimes
ukp
notator
phology
##lement
crete
##far
##dc
##hos
justin
simu
##eting
chun
mediator
vanish
462
##apertium
314
##kagawa
##essarily
tube
plurals
pete
##780
traite
decomposing
expan
justifications
asymmetry
imme
##now
metaphorically
##tractive
tourists
cours
neverthe
rein
mitra
untranslat
ilc
##chester
politi
testset
##nodes
544
persisten
affine
##generalizability
eventive
##lund
##domain
##ually
##380
tlt
mom
wdt
##kan
slices
tecedents
contracted
nod
praise
loved
1932
sphere
837
##ito
resident
clicked
nyms
idx
cliques
parliamentar
gel
onym
ology
figuration
harmonize
943
neel
570
rod
intercept
emissions
1952
naries
lationships
thang
solr
##wb
##auto
aki
dela
jacket
salam
##ringer
##kato
instantiat
gut
##ipper
##bach
mobi
contours
##kov
##gna
jacobs
champ
sans
cursor
##nw
dias
obs
##udc
supple
zhife
##pat
fram
amine
##cently
ihm
bowl
##jak
inspire
##right
enhancements
##aches
kita
##ume
bursts
surnames
##0011
baez
covert
brod
schi
punctu
functors
danilo
905
##reva
digest
##oral
780
jauh
haif
erb
waste
recommender
##hud
673
spokes
chien
struggle
whe
##monia
udf
archiv
intrica
haviour
##izable
omer
670
kwi
##poor
sheng
hung
setimes
jumps
herb
995
##formation
sli
pda
jens
569
chatterj
##hill
legs
nize
##atherin
nuclei
1031
##csubj
consumers
welling
salienc
predications
##predictability
bott
hasting
kha
bh
##function
ragh
sincere
##nets
rog
diverge
tbr
##cast
##avoir
##lau
masu
onyms
rtm
##get
chunkers
opp
##bott
sono
phosphorylat
763
deutsche
##seg
ecrit
##sec
slp
##panja
##nately
solvers
##erson
magic
##argon
##sar
uz
gri
chooser
binarize
tific
presuppos
questionable
nif
intension
nski
##ibility
abil
critere
hastie
perva
pow
mount
imitation
trou
posters
subs
nnps
996
roni
nige
culminat
khali
hci
##amita
ey
ftag
tracked
035
koto
##51
bridges
additions
produir
##may
graphemes
##entity
moral
##sti
canon
internally
agence
nei
mfc
##opted
##imated
jape
##beth
welch
journ
##esser
physiologic
mov
##spiration
##range
##ligence
##hy
translitera
##kang
rewrites
adja
roof
##ovski
dragg
##than
tcl
##sque
prising
crop
ppm
mbot
angelik
transmit
underscore
793
##hdha
jected
oppo
##028
kom
samp
13714
##hra
nals
bitexts
admire
sink
krist
2633
clearing
##eria
ruth
mize
##igen
sdc
967
##lot
siam
debat
##xtract
##water
devot
mcaul
##ele
abo
##sz
imal
##jcn
##app
##ein
##hd
##cmod
regulator
waits
duh
##arn
##iao
##uws
intr
swat
##bit
##alised
##rep
designate
kok
##ended
magnitudes
hsi
##578
depr
tances
intense
subordinated
fond
bark
ures
bypass
ifiers
feats
eka
signify
##func
mixc
##vc
jur
cim
##zzi
##anging
auxil
swi
slides
broadcasts
##visible
775
joa
##munk
proces
gw
somers
##cheng
ass
lent
##248
685
##kids
##zen
initializ
assembl
##fix
subsump
895
##guing
licit
##cies
##genous
chars
trai
encapsulate
bri
nominaliz
bcc
dirk
suff
expose
qw
##mul
bindings
##ath
##gar
##voir
##ping
distribut
negativ
##fc
##before
##diana
899
gpl
738
##eira
buckl
lingo
screens
969
rotation
scoped
##rmse
petit
underspecifica
skal
##lore
##ealing
##ching
stent
apt
1117
##916
tution
meilleur
1212
##tting
##guistically
atheis
scann
##vent
teen
amend
assimilate
zamp
heading
##argument
voi
decompo
##246
##ael
##inski
##nsuite
##156
economical
##ston
berry
lhe
##stan
##hlt
calibrate
##macho
obteni
kou
tup
termino
##dp
motive
045
##store
##rary
cli
reh
751
striction
##clause
aud
dures
##nom
##run
##constraint
cascad
##rating
lasts
##cted
059
mora
084
packag
##ego
blocking
587
##clas
##shua
revi
glo
entitle
pcc
##vowel
757
amer
##kos
##pred
##erja
annote
##onary
nex
egg
##sycholinguistics
##sj
tour
##mel
lexicales
##eparation
bills
##wac
##cai
meg
##algorithme
bite
bona
##first
ried
ite
##curred
bolle
marsh
prot
geom
tuna
##xa
beno
502
cham
773
odp
forma
##oshi
##cts
sco
comporte
891
##mation
talker
##148
##official
##nin
hart
##xed
764
candidat
godi
##tually
2532
##uji
erarchical
nir
##wee
isnt
synthesiz
lpc
matthi
monic
moi
##cultural
##fellow
constitution
##xl
##ims
##corp
typologi
mitt
sics
##dana
##niemi
##kai
hay
##yl
##khz
037
1800
coll
comm
##pres
##ulous
cpp
##curs
070
##eralized
##bfgs
##sam
##string
##unk
ive
ani
rive
dies
tcb
fsm
##alt
##shman
ck
glu
##brand
866
##wasser
##adv
realm
fetch
ljub
sca
##item
##sha
kato
##racy
unsup
boul
##elected
##tegrated
##icity
equate
osm
koy
##owen
913
065
##volution
grate
ucl
##prec
##stmt
##stic
pit
##handler
paw
penal
##attribute
tou
lj
gig
bed
##kg
##103
bored
kord
amrs
transl
mun
##inc
influenc
involv
raja
folding
##lism
zhe
prun
##370
serializ
##taka
resist
bagga
##ntivo
avb
##talk
##aru
comic
whats
##contiguous
080
##dev
##compatibility
argentin
##feature
explode
##sia
adviser
corroborat
argumen
knee
##mix
##tfidf
##wen
1018
quel
##phon
spectrogram
hanna
athlete
shih
institut
##allah
vegetable
workstation
hesitation
creole
competitor
lexicographer
colleague
volunteer
sak
deficit
##lized
##ektor
subordinator
timestep
##agem
##anti
dation
futur
lingu
airline
supervi
ist
allophon
excep
categoria
dw
810
mislead
##maker
realis
##tense
ehre
406
degre
##nagari
##api
foi
arrang
tian
##oudaki
differed
arbi
043
haw
960
chem
##ulating
restr
lix
episod
translati
##ognized
sprach
##nnett
zabokrtsk
existent
formulat
conjoin
kth
decipher
##iding
developpe
gem
fujit
sual
##szek
bors
wtmxling
##nynorsk
casacuberta
excellence
huddleston
kiritchenko
malayalam
mouvement
pakistan
repertoire
ruppenhofer
salvador
stajner
strzalkowski
venugopal
villavicencio
whatsoever
klakow
riccardi
saccade
##lkopf
cornetto
hkpolyu
eojeol
volcano
pitfall
jaakkola
horacek
nervous
paradox
spmrl
bronchi
vendler
minibatch
peggy
budanitsky
damerau
seventeen
boleda
kazama
darwish
hartmann
breakfast
declension
cicero
cicling
heterogeneity
immedi
permanent
azport
cogcomp
mouton
madison
parikh
gratitude
icwsm
reproducibility
ambitious
pundit
dizier
destructive
utrecht
slept
koppel
surrogate
getoor
iccv
kurdish
icslp
heatmap
plastic
physicist
pietro
instru
plateau
compliance
proliferation
hungry
surgery
cieri
receptor
extraversion
lambek
ellipses
kroch
didactic
blache
nigam
cruise
unfair
standoff
trento
dfki
stationary
swapped
##tentially
alpino
stevin
olympic
shopping
depbank
wikinews
disposal
flood
truthful
laird
circum
enclitic
unidic
ikehara
jiwei
coastal
edgar
parlance
mctest
hollow
interpolate
glassman
parc
knott
grammateme
ziji
disney
craig
##jacency
herald
szp
cousin
diabetes
interchangeably
gasper
kehler
siskind
garrett
mrksi
irtg
decidable
werden
collapsing
sontag
venue
sejong
##anda
deliberation
conflated
durch
ripper
clothes
stimulation
endorsement
restau
transmission
holmes
vy
heel
blair
envisioned
clusterings
pictograph
fritz
##stalled
genealogical
urbana
srh
topicalization
ahmad
dislike
propagat
karaka
clipping
trg
ges
atkins
interviewees
lyric
1959
desempenho
meulder
aspx
biguated
transtype
sistema
##strict
coresc
revisited
maxsim
derstood
diagnos
installation
ulrich
spotting
flattened
campus
illegal
visualise
swapping
sadao
erreur
verbe
polyu
proches
uploaded
vecteur
abu
multimodality
##learnt
utilization
testbed
vader
skelet
implicative
practitioners
banea
gbk
satta
whnp
frantz
fixedness
prem
resigned
dbms
suppression
tomata
intelligible
polygon
sali
compre
wick
keras
dispute
terminated
poison
melo
survived
frederic
regulariza
subgroups
398
dependances
overlooked
dx
freeman
##pers
gauch
##articulation
kauf
fricatives
nonlocal
workspace
##rimell
##ukri
pavli
subdomains
brnn
phono
mosco
saturated
mehr
latedness
busy
tainty
664
##leman
hyperonyms
portage
svet
prepro
blast
lucky
directives
rado
frq
possesses
##pass
discounted
celu
1953
kuno
geoname
pseudowords
delimitation
##criminative
assez
##ragana
steels
randomness
##ied
pinc
stk
##kdar
eine
configure
##aware
##ngl
sector
cursive
kiril
bee
attia
wildcards
modulation
morphosyntax
subparts
disfluen
##mbert
insti
garb
##einstein
erent
scanner
invisible
cough
nederlands
angular
stereotypes
##vey
##tou
exhaust
veronis
ficulty
##oba
peated
quisition
riod
1406
manipu
protected
evidently
qualite
recogniser
democrat
intensively
exponent
vfin
democrats
##advp
grus
acids
pheme
farmer
stamps
juli
##dial
lesquel
##loo
tificial
weapons
lux
superclass
##nhua
ator
metalanguage
performative
ncp
##hei
memorize
ascent
pendently
phemes
acres
678
quot
guilt
signer
##rules
laughing
locus
sigma
##kaku
sequ
sdrt
sko
wtm
therein
##arne
881
reformulations
imental
brick
##sistency
versations
##rial
infrequently
nore
walt
##cke
kano
mish
lauer
caseframe
##preds
omitt
##achen
##alan
favored
formant
treebanking
##229
abcc
relieve
steed
cooccurrences
##836
iterated
##surance
##rcs
46747
loo
alarms
cata
dele
##chel
nbc
numerically
ify
tamb
##kward
stipulate
preconditions
kj
bonne
syllabe
ccl
inject
##otti
##928
tradeoffs
##terina
snp
bun
increments
argmin
##ranav
andrea
##rity
bundles
breed
grc
condens
##rati
vz
pcs
msea
##covered
##bonne
##borg
##substitutability
tolerate
##alization
napole
resid
hsin
ciar
047
derniere
autosegment
##mming
vehicles
medications
##ssi
vlad
##zoua
dart
kings
modul
lund
##8750
pleased
##endra
ox
karma
lowers
hero
regulate
badly
sukh
##onson
ilk
cbs
decorat
disseminate
##nic
##ox
wg
##py
cbc
teractions
typo
##lef
##hpb
nou
fofe
tired
browsers
##lac
##13330
cise
##amp
calcula
##alisation
bai
##amanis
##gent
grammarian
##akbanken
goi
##lexicaux
reactions
agglomerat
sdm
##emma
##fou
shan
bfs
sdrs
##symmetry
##mura
##termediate
nian
solute
packet
erences
##izations
decrit
enrique
absa
incl
notational
##gorization
##osken
cac
suj
genetics
##ribes
811
##cisely
beg
##titut
012
1007
oku
maine
fool
nict
vot
815
utilisa
##ployed
##named
##gotten
##tish
improv
putin
##knowledge
tat
xj
##oria
mda
patch
lbj
macle
912
reconsider
##process
carolin
suru
uber
presume
##eadership
inversions
##orkel
disallow
##trinsic
cognizer
##oka
outstand
##376
093
neuroscien
juss
##ajja
atta
natali
sandwich
18819
flexi
##ishi
##5481
##andez
simov
outputted
bonn
dyn
scent
devis
##zak
##because
##seem
##parameterization
ngd
wassa
lease
ddi
dags
generations
1011
##285
puis
##oki
permute
upv
##axis
assets
##tium
##since
locatives
heap
gpus
##lbrecht
##cing
challeng
##hre
##anian
aris
##anya
##mea
##vb
eco
omy
##0421
##bullying
cardi
831
bunsetsus
divisions
sx
clu
marcos
hagen
wint
arate
intern
##ager
##gua
alogues
npr
subcate
transforme
inal
saka
tb
pops
##rmann
##product
quelque
verses
maos
abundan
##berger
iw
##040
onwn
slack
zar
georg
##ikke
huan
levi
meilleure
herent
##onez
casa
##hil
maxims
##script
yon
territor
##fulness
jakob
logit
##fit
llc
minimalis
timation
##onna
lena
nis
parl
kv
tmu
##ppi
dependant
##ort
rsd
parks
porta
##versational
conso
##ploring
svn
##lev
constantin
868
##social
herence
088
##omi
##iou
bath
ruben
369
evb
bagg
##rap
sfs
##uba
plato
gat
cgi
1137
ihr
eks
##180
##features
aspec
cram
vlc
arately
##bourg
sire
##gtz
distor
expecta
meas
deno
degenerate
tinue
gris
##currences
bip
din
fuf
resultado
lacked
soci
versal
whale
deen
pane
##htein
hig
conception
propaga
gent
##anyi
##sci
cra
##tout
##904
repos
ult
bann
##mot
agic
precisions
##ente
##cq
##uchen
nota
##orp
##cf
georgian
##imento
signifie
##rie
##ously
dico
##675
##vsky
dtm
##vas
bret
delegate
##aires
dig
fid
kather
filip
comply
krishna
sparc
##away
electro
hor
adapts
marginaliz
907
pany
spatiotempo
wars
##ieu
furnit
moch
##ficient
063
conceiv
877
taxi
##tone
##content
substitu
detach
ligne
##eat
oak
##ener
##grade
##bis
##107
##umbert
aro
##iegand
oard
stanfords
faction
kho
841
##jovsky
hsie
##sin
hasa
grac
091
primal
ez
##feat
1211
saeg
mega
stocks
1702
fabri
##quirements
635
dax
##tec
nus
homophone
##tives
frey
landis
hak
wordlist
##dimensional
fines
##abi
##0000
reiterate
##definition
##segmentation
##ust
ministre
##dtr
attributions
dad
##aries
briefing
deri
##ference
axe
sari
educat
##nder
vnc
temple
ooooo
linker
iris
voy
##mf
883
vq
mlr
##tern
logis
##lier
##az
##ilinear
sati
##similarity
cab
##tland
mou
bour
##itude
##deterministic
digitiz
asl
phrased
##nia
deer
gy
particulier
##rna
##imi
legend
sala
##bah
##tate
875
##liang
pler
rcl
kip
##akanta
##ossi
picker
##raj
glottal
##oja
##sistently
narra
##tionally
sational
lax
aizi
kno
resultat
##ridge
##look
locale
##etti
##arts
tesni
cert
##mately
##bunk
##sults
##oldi
##929
##yle
akk
##mean
##atio
doll
##zation
948
persona
vil
departments
##token
experimenter
rul
##neg
stantial
##ularity
inative
##miano
##168
##bay
spon
##usive
##rained
##364
##roc
nity
petter
hilde
mmt
##glish
vey
kam
##tom
##jority
variances
##gender
705
861
##rench
##vv
irr
quir
##veau
##uv
gration
donn
##badi
##ulf
##ured
luck
##umn
bats
equ
##olog
##nette
artifi
propre
jeu
##title
burge
##euven
cessful
##uld
572
##blog
fass
voor
##aray
thr
tensive
sian
qt
##irs
habe
decrite
clar
rsv
cq
##expensive
##ecker
##going
1400
incon
##adapted
predica
##flight
931
##scope
wid
1611
vise
taas
nsp
##tent
bald
entr
##ray
marin
compressions
##ils
tia
scs
mice
##roles
##fonseca
notification
constitue
##ulia
siva
dences
##credit
##letta
sma
##cit
steep
sfe
##uru
pushp
089
##tten
committe
##dj
gerber
##avg
sek
##gne
##lap
ucs
reflex
##mba
##tica
##erator
boc
marr
lips
charter
##fb
interpolat
##pm
kul
dip
nh
##fully
quadruple
herbs
inlg
##ldsz
##posts
pac
gramme
yee
racis
spaced
##120
psc
kra
##elix
##ondary
leo
##sentence
##push
##ronique
##arber
eff
verge
tro
complemen
##calized
##uto
##fall
dinate
##executive
ffn
##quez
societ
unifie
poe
glanc
##gexp
lowercas
meter
##aspect
##identifier
jap
##adaptation
##phonemic
##earing
passe
cambri
huck
##zing
##ugares
##lts
087
mall
sugg
##bolic
gs
##df
centr
guu
biomedi
declar
##abel
documen
asterisk
clinician
activ
1605
philosopher
impairment
trop
compromis
nit
qualifier
qualification
nasa
gab
interrelations
subgoal
toy
kore
##phone
##edness
nunciation
propriete
##eci
endpoint
##retrained
specifique
hays
campo
pher
pseudoword
##138
animation
laver
suivante
##dani
##hiro
036
succes
##agon
##mrs
##loff
td
##enthal
mut
elemen
daml
##plies
joke
monoli
austral
fulfil
##1155
nonter
crosoft
##even
##ches
attraction
dss
contributor
elm
930
2232
divorce
croatia
979
##rahman
sophis
chamb
drama
1250
withdraw
pronom
urban
##gren
claus
spectra
0003
pel
sociolog
dictionar
##both
acknowl
atmospher
birmingham
buitelaar
caruana
chandrasekar
lingmotif
mscoco
opensubtitles
pennacchiotti
quechua
rijsbergen
rundschau
sapporo
shakespeare
striegnitz
sundheim
tournament
tsuruoka
undecidable
vicinity
vlachos
debugging
eumssi
honolulu
impulse
retroflex
adjudicated
reichenbach
cernock
nonsensical
nocedal
prototyp
stewart
anchez
courville
seretan
hachey
mackay
wisdom
livejournal
cettolo
cabrio
pecina
icetagger
kasami
crowdworkers
guillou
docidt
landscape
rutger
snowball
whisper
wonderful
neighbourhood
untouched
quotient
##vsm
scenar
greeklish
opinionfinder
liaison
mysql
pilates
##ouzi
enzyme
outdoor
attribu
venice
lecun
jozef
rodriguez
cruys
injuries
educators
tandem
confusability
danlos
uncorrelated
stadium
decimal
perpetrator
bubble
easiness
scholz
##porting
hughes
leonard
etymology
benthem
derreur
epidemic
crfsuite
commonalities
##ngram
meteer
elephant
seulement
secretary
circular
disparate
semiotic
qrels
yuret
whitespace
circumvent
therapist
telephony
reinsertion
favre
oberlander
##ebrahimi
reptile
frustration
bergler
cftg
fascinati
hue
gehring
imagination
borderline
packard
modularized
informativity
unstable
administrator
cmdi
blonde
sophia
envelope
dzik
virginia
nonunique
wotan
delhi
noticeably
conrath
pepper
baseball
normative
collier
momentum
kaiser
conquer
spray
overseas
pinpoint
proficient
morocco
shadow
coast
afnlp
unimportant
pertinence
heidel
habitat
capteur
preterit
refund
clarified
jacobson
prenominal
langage
threaten
incongruity
alphabetical
##delaware
domination
genqa
erhan
braille
anoop
interference
smartphones
formemes
droite
password
extraposition
accommodating
personalization
doyle
directive
vyas
establishment
schulz
conscious
footnote
impair
tansu
toilet
princi
cald
underway
schultz
maaten
pinker
oliveir
fgd
albanian
lehner
accura
wiley
##puti
vitamin
amendment
thematiques
mccal
##191
gerald
lukas
rectangles
exposition
1450
euros
aharon
techno
ville
##lyzed
pocket
harass
aggregator
feminism
nba
lncs
##qe
##lso
##ctl
gilles
indexical
pulse
bugs
subba
snip
rosa
residence
jorg
inconnus
zoning
hypertext
neologisms
sponta
corres
##soudre
clara
elmo
diminutive
hyperlink
inhabitants
biologist
068
##dade
4148
jerry
eryi
nieh
witnesses
bly
advised
banner
uncer
flesh
bloggers
advertisements
unsure
newspa
topmost
##nat
chuang
immun
connecteur
736
shortage
holonym
topicality
euska
visibility
pursuit
controvers
##428
mohamm
zden
##abord
considera
xenc
voluntary
punch
sphinx
##azvini
telle
compen
gineering
##hes
qualifications
5701
vestigation
quiet
firth
litteral
sah
broker
##stadt
servation
vergence
kwic
##ios
multiling
##stack
wpm
censor
dominic
restarts
confound
sofa
vegetables
sessive
ioann
1920
kern
##lectional
##trasentential
##ibi
iy
reut
amuse
##heng
nichols
molecules
cki
754
cascading
verbalized
schlu
##rtschat
##essen
invent
pset
mensional
##nglish
##riguchi
lemmatize
generique
##657
nexus
frau
rative
voyelles
1145
adm
giulian
ratives
precis
bibl
lognormal
ukrain
##inaria
bernd
##igman
##lige
eag
##los
wesley
##rac
##ventional
predecessors
eigenvectors
##attn
propri
##iza
adaption
monkey
newton
##jc
retweeting
savo
anomal
bolly
busch
kraus
ucca
intermedi
sprache
methodol
##achi
zach
leaning
uoo
##ements
crown
scho
chef
cookie
defeat
sacrific
sieves
dragon
kei
pregroup
bock
positionality
cussions
pyp
sager
##bitrary
manuscripts
##uu
recreate
hs
opponent
talent
homographs
ubl
##ahd
wraps
gua
informatique
pied
dred
##titude
intrin
esul
accidents
bloc
##debt
shortening
epsi
##oj
annot
##chanical
##rolog
ftp
normalizer
stefano
rip
sudo
gath
volatilit
##conditional
1514
##ourne
##ported
##ulty
postings
pag
tissue
##occupied
##uresan
envi
reception
magazines
mmax
##pository
collocs
widen
##hold
##redge
concordances
reside
##otta
disposition
##epa
tateis
arrangements
convolutions
resign
1602
##mmi
illuminate
particip
998
postpone
bombing
shw
babi
yx
laptops
fishing
##catenation
utilised
gur
selectors
##synset
factorize
attri
##etxe
spear
##1022
chia
mapper
sublanguages
aoa
##will
acquis
combinators
##nite
recherches
bottlenecks
##015
multidimension
##artha
##approche
##379
qud
enjoys
##wp
doubtful
planet
##sup
vien
mura
segm
officers
nisms
##intended
originat
parseme
boots
supposition
##suite
encompasse
##owever
hdl
alignement
051
doubts
wr
##zzo
saha
gestur
crystal
visu
tapes
niu
##1115
##nan
koh
blade
toral
##many
delays
ulf
##ems
entailing
26827
casing
hac
##tcher
kazu
##sauri
dyad
##ector
##rized
principale
gries
harmoniz
tas
sio
explorat
capa
fuel
##sieur
##269
##etter
bioinf
incentive
entend
nection
nesting
##ales
077
##boua
enumer
##kpro
contrainte
plas
##labeling
##emed
lor
##iga
##uat
crawls
natives
sept
bands
##pn
profi
dtw
##pel
maja
gav
zen
##ruij
networking
attache
kaf
sj
##wf
990
inser
##nell
infeasible
##ifications
mmd
rite
positioned
recorder
dfa
activat
neves
annotat
desires
##bot
##ady
fab
zit
gpc
672
talu
optim
placename
replication
victoria
swan
##classified
cid
pfa
algorithmically
synta
stevens
##nian
bertra
##lijk
ductions
plants
mathemat
##urve
##ibe
##abilities
derstand
##jl
##625
##cmc
anc
duo
raha
jac
eh
needless
erator
towns
sui
unifi
monet
ub
##sd
advancement
unconscious
algebras
kenta
##enth
istics
##ilarly
##roa
3093
##nda
showcase
kuro
exempl
ssm
examinations
##vuk
brains
gn
##kita
russ
##onso
jf
tokenise
##dgets
padr
kubo
681
bsl
initiation
mario
yip
nient
timal
coordina
entree
celebrate
shipp
lori
##usability
tral
erica
##standing
utilisee
##chan
audit
##telic
signaled
##rose
##very
jerr
gerar
rlm
##wid
##clips
agglutinat
##eth
eb
##hirt
hew
cair
salvat
huh
tacl
##eger
gfs
##scu
banar
##yesi
runtimes
thou
iuc
outward
limi
0213
manners
##huang
dpc
appearances
xmi
##dolph
##feld
kuz
petition
woj
rdg
##wk
##points
vpe
listings
msrp
##rade
existe
##pensive
performer
toleran
inline
covery
munication
##ubert
jong
fog
##physical
simples
poets
evidences
prote
##aten
thir
router
##hing
17118
stratifie
poz
landing
ible
##vm
##cii
##vector
obscure
distortions
multivari
parametr
erwise
mason
##lebano
##eats
##breviations
impr
wug
differentes
advertise
cristi
vallet
terp
curious
##aquel
seeded
jess
testers
furu
replicat
traditions
##normalized
##ardi
saleh
##aci
completes
suites
tator
##xia
nadi
##1528
boo
##oz
kando
centres
macros
##org
##uvre
tensors
hip
trate
ogniz
##gala
tempora
etai
rarer
##cessfully
calibrat
amira
vd
##phora
nur
lexic
sony
##170
annis
986
rejects
baden
##hun
jiu
gong
zare
##array
volt
sbc
gular
champion
harp
dock
##almon
logp
isola
##fth
##ession
nemat
##ici
hamp
##measure
conve
##logical
andrei
##yna
dbs
teria
padding
morphologic
ification
sour
##inally
manufactur
owned
##firmed
##observed
huff
garc
11000
disentangle
itai
rim
textos
css
##chard
camb
icy
##iq
uzb
carn
sema
verifie
yoko
##alysis
numberof
rac
922
contextualize
prolong
758
dme
basil
extrapolate
tid
reid
sld
##onne
crack
fitz
bleach
ifier
faz
ign
##onymy
edmon
hira
volk
##don
##logos
luca
sav
rebel
impli
##1508
kili
##uhn
691
##garded
nea
rag
separ
##itter
1051
dinformation
confine
##ronis
##figure
sqr
##ammar
##lash
##shan
facteur
pluri
yve
comprehensi
##erably
afghani
radf
initializations
##mma
##ocal
emprunt
##ester
mau
##results
ferrar
miha
msl
hous
tilt
fluence
##same
sentimental
blu
histo
##tat
probe
matri
##ernet
ants
##mg
##col
painter
mwn
##specific
einen
1911
mohi
##252
melb
##emic
##fil
##teria
locu
preted
kk
##dense
fscore
983
manag
insta
bir
##rupa
##ardt
##sio
probl
termos
xip
hab
seu
##uta
##ubm
##baum
gv
jth
compass
##bic
underlie
ohta
differentia
##add
##mark
##ipa
##dat
chats
pools
annoy
##edic
zam
tabl
orei
wss
releases
iterat
invok
##ception
souj
##orn
##lles
prin
dtr
castil
paradis
##troduction
##kun
stefani
beans
##another
##omme
##world
##matics
textually
foo
##mission
electron
##div
##rde
kal
##tur
js
1350
zhan
yoshi
##struct
nicke
notate
rmt
771
##maz
##negative
fips
ssy
unorg
auxp
assure
##edge
ptr
##federate
cgu
lbp
jam
hg
##709
vul
##processed
velop
refere
##rody
##nstructed
lore
presen
##ppe
##combined
simplifi
clone
##tures
##icating
moods
rafa
##ija
syste
##matrix
jul
##quari
##codi
##lity
##doni
concatenati
##mus
nizer
psm
##agged
vh
sift
##represented
activi
scrap
pecial
categor
spit
##quelle
lima
sven
##mood
fourni
dialogic
##deep
##roit
##erates
env
randomize
foil
implica
dls
1231
qing
mq
madad
imagin
##flex
interpo
##gni
894
##ole
sensi
##disciplina
##oss
fat
markings
stereotypic
##decoder
conceptualize
raz
deutsch
nicole
stake
##llier
##istically
##ethi
jamie
indetermina
##say
accuse
##10000
##agan
##annotator
##spirin
vocali
cond
entrain
##degree
##911
distract
##rip
reporter
##hwee
trum
exc
##978
nant
rah
gange
079
zl
dcd
##qs
kira
##caps
bib
interleav
cense
##224
dcr
agglomera
fructifi
##zhang
##ret
marginalize
melvi
##gle
##proper
owners
##night
pott
##uts
okaz
##oda
##miner
##short
prol
sparser
proform
ula
equip
prend
conce
gall
##emo
amit
rize
951
classif
##jie
rna
quantita
morf
paol
elimi
##oltz
deprive
##mesh
##rolling
0012
##ensity
##mig
##iska
807
##ilingual
##918
##conflict
geste
domin
decompositions
tacit
##ghi
ensu
##974
##tomaton
##wsd
##1991
##otto
informations
##finer
rover
chao
##misunderstanding
##kdl
##walk
##lms
bli
##diately
pine
lane
tus
##capable
##cken
appr
incur
bla
##dish
##lio
publi
##ario
##gold
##resentative
##oyal
##factive
##coup
##empty
##lcfrs
alog
foun
metaphori
##rez
ngo
##bbot
##enti
##ense
articulate
##synsem
##foreseen
##aligner
##ows
##3249
##giza
xs
##licious
##eus
##liminary
##ately
939
homes
permettr
##lls
##nea
##width
categorise
##lects
subcategorize
omar
##optimizer
pitt
duree
suss
minima
##finite
##finitely
729
##typ
matr
olds
##centage
##tuple
##elin
hire
##tech
misclassifie
##ites
kas
cident
durr
##bright
olive
##matsu
coh
ihre
hver
##iev
740
contri
##dyke
##interpretation
nrm
##conj
compresse
khal
eralize
##see
pea
lyze
##boer
dida
ceive
inventor
fingerprint
negate
##ented
automa
cooccur
##hammer
smoke
minu
##bird
##did
tcr
##askin
corps
##yond
execu
corresp
histori
suivant
##strong
imm
inven
disjunct
##zip
configu
accessor
##ilek
elk
##665
npis
subcatego
##then
spher
##feed
mam
##lena
##uyu
neil
unifications
##nig
kanna
tica
##heme
collaborat
bico
iit
akb
thographic
sva
checkpoint
counterfactual
cartoon
##holt
personaliz
subjectiv
mistranslation
shortcut
##hoo
hir
unt
eigenvalue
inria
##eqe
fricative
aca
1022
storyline
dollar
dream
##implementation
closes
##586
##bee
sememe
##opoulo
plat
##jp
instructor
unde
singl
yoo
complication
##abor
##also
gha
stimulate
embodi
subdomain
indexer
##nb
beginner
##marized
mah
##ginning
bibliographi
##iegel
##gava
##notes
gian
ldd
lul
##nome
pts
delph
##joining
unfortu
lefev
bless
backprop
irvine
##singer
delicat
##ierung
multiplica
indonesia
latvia
seller
##strated
##oun
dupli
vik
janse
vad
envision
honest
perso
romania
hutchins
hungar
##forcement
moyen
exem
interconnect
##nificance
bidirec
putt
durchschnitt
hurricane
bonferroni
ciaosenso
clergerie
cresswell
cumbersome
cybernetics
cysouw
dyslexia
dyslexic
echihabi
ethnologue
manjunath
micciulla
moortgat
navarretta
nijmegen
owlexport
pesquisa
pharmaceutical
plethora
scaffold
senellart
synaesthesia
szarvas
torisawa
agreeableness
buffalo
campbell
esperanto
espresso
groningen
inchoative
jiampoja
nakatani
perrault
senticnet
solorio
wacholder
dendrogram
deuxieme
ottawa
hussain
loftsson
wotanlite
felicitous
interspers
kintsch
waveguide
cobalt
adjudicator
giraffe
nicknames
perdurant
zisserman
amazigh
minijudge
reproducible
sudden
trustworthiness
gumbel
belgian
kurimo
waibel
eckart
autoslog
direito
flanders
chacun
hanako
trenkle
afraid
clayton
pentland
edmund
capacities
cigarette
encdec
pleasant
schuller
intensities
explosive
lavelli
talbot
entidades
dubious
bibliometric
deixis
leaderboard
schmidhu
forsyth
141188
interfere
sokolov
giovan
knuth
philology
ubiquitous
donkey
haiku
clueweb
woorden
tenfold
phenotype
stratification
telegraphic
isahara
tocfl
quadrant
depfix
guardian
zaenen
virpi
comportement
syscomb
eurospeech
##kunaga
karlsson
swift
odonnell
enquiry
texttiling
comparaison
nontermi
nonparametric
mapreduce
hurry
disponible
newsletter
hancock
sigdat
##kanten
harold
resignation
extensibility
fernandez
malicious
unexplored
jackson
krenn
nontrivial
appartient
horror
soluble
disappointing
combinaison
##rung
simulta
governance
sptk
footprint
ade
linzen
settlement
album
admiral
stehen
cataphora
kleinberg
configurable
unoccupied
udhr
fouille
villata
uninteresting
##245
malware
wikification
hind
nissim
unmodified
##rousse
##grated
avalia
dentrainement
interdependent
accumulation
newsdev
brachman
connexor
survival
nexusf
empower
mindnet
bimodal
doe
desiderata
merlo
household
riehe
translingual
##shek
competi
bmj
bullet
hague
lukasz
regexes
lichte
offender
cuay
chiasm
unresolved
lettres
tandon
##ertheless
ecml
rosch
retrospective
maeda
plwn
##dence
novak
tyson
sparky
jerem
pollack
navigator
noreen
saito
anomaly
monophone
reidel
cooc
carpet
wikitext
emille
unaccusative
mechanics
commence
pinkal
exophora
elision
straightfor
stuck
kopp
##jury
perceptive
listes
earnings
haspel
brack
kaji
braces
jag
redefine
##sak
chronicle
seminars
weakest
horribl
popel
rafsky
reyle
strangers
swart
ajax
construal
hepati
flash
iwpt
vidal
tractability
cheek
construit
activa
trajector
deconvolution
couleur
defence
ameliorate
stipulated
organizer
cruse
perturbation
locutor
homework
lagun
subband
pfah
gib
scared
proposta
dundant
spellcheck
##pylm
awful
maven
kirch
ncbi
shades
8997
batra
vessel
exhausted
altun
##importance
allomorphs
cooccurrents
busca
diphthongs
elden
technologist
inhibition
choix
attardi
arrange
slopp
notebook
iwp
amazing
terri
simplifier
directories
stella
multaneously
vocalization
palate
wondered
wounded
initializa
brock
hypernode
sylvi
mochi
moteur
authoritative
borth
fes
markovization
rigorously
stego
saldo
incrementality
countability
##vos
##rms
clefts
straka
surf
realiza
##entially
1459
extrem
hoppers
drag
viruses
##nie
linden
subfields
##sur
laur
slashes
algeria
howev
parametrization
recoverable
adrian
universality
px
sermon
echantillon
soundness
retrouve
1930
##gumentative
epps
scroll
elisa
riddles
mrls
##clair
racine
krah
oka
advent
appos
overuse
nx
schizophren
1511
blogging
archiving
vanderpla
qiao
##sumi
fundf
pardo
##appointed
blending
raphy
seism
##woods
adamson
##oritz
tifier
dreams
instructors
cocain
annoying
eigenvalues
##kamp
1166
ktb
##635
consumed
suivants
recei
encom
subsystems
bengts
volod
hell
synergistic
##aus
complications
tee
plagiaris
parsefrom
gkb
impaired
donnee
lindex
pluto
qualifiers
##rch
ceptable
undermine
abductive
postulated
ghara
ameliore
convict
suffixation
visa
##urt
nbow
forgotten
semilinear
suh
##isant
unfolding
bq
habits
proj
cpos
regress
##ntly
creoles
mise
silk
abstain
30000
kust
curio
##mitru
molly
lauri
iswc
konnte
ranta
oxy
mimick
marcin
saul
##stituency
contenu
applique
jacent
lly
alyze
ponyms
erro
mlu
citance
underscores
remembered
pras
gentle
vestigated
redu
22423
camr
tyers
chiu
##emawat
converged
juncts
disputed
776
analise
thomason
vdr
wrappers
seki
oj
##roslav
ziel
jhu
classifieur
opencc
hyperonym
renew
hasler
1854
1111
##achel
sentilex
##init
heinz
complementizers
##east
##quest
1135
guys
disper
##alvi
##favorite
workplace
cwp
gzip
novices
##entropy
vrai
polls
mati
1170
dallas
##hs
##iyama
teractive
warming
ciphers
mig
ingredients
lemme
rail
undertake
fingerprints
##timit
##acci
##qp
##jected
appliance
barker
concord
##1179
rumours
greetings
comprehensible
hanced
##uchi
dare
alise
##elements
##utte
diachron
##havi
##route
eller
##yes
skut
1162
arms
dys
ssvm
horses
zweig
caee
liability
jung
nikl
##uen
subtopics
idan
spinn
amy
##936
advise
1143
giorgi
##ueb
tactical
outset
quanto
thatcher
xfr
shock
##tracts
adf
##una
uf
yejin
##lowing
bfn
promis
peg
tinction
##rash
cagla
notify
##pec
connectors
borrowings
##vely
erarchy
##linked
jeffers
imitate
##left
##lickman
punkt
##loss
##mento
##rte
transcribers
1941
coerce
differentiated
leased
leas
hersh
##fm
scare
##roce
proofread
914
##arcos
elim
kazawa
##telligence
rit
##lang
fectively
cadres
988
sleeping
##prises
##bet
uq
##enn
##alla
castell
pela
temper
foreseen
synthesizer
##stop
physically
vie
1711
mittel
##miento
##ntz
##reme
favourabl
plos
blai
##tia
spike
##ilar
donner
minq
racial
rcg
spark
##rol
btm
issu
fcg
entrees
0005
vax
bergman
liv
utiliser
##ssr
826
##tim
aq
##lqw
monad
universite
glad
partee
sao
##kt
dana
elections
##dra
fsg
##rit
supervise
servations
##ticipate
##lick
##ische
observers
wfsa
strive
##784
abdom
##naqa
##gari
dgt
sessment
##they
##ducers
##plished
fla
constru
##mmar
##ashi
##tual
##orial
##eri
##ancy
##150
xiaoj
rink
##ache
psycholinguist
##tells
##plicable
gmb
##frey
752
ecb
contigu
nml
##004
##tinov
##vnar
##rib
##nit
zue
##completeness
selling
##dh
##ferred
##mons
lec
romaniz
rss
##uz
##ingly
bate
gdp
timize
pmc
nato
##ished
##exemple
populat
##spicuous
mizu
architect
sij
28228
bis
ddc
##958
##ops
analo
warp
binet
regulations
cero
##eased
enum
nah
##kenization
pvs
foci
radiograph
076
##gests
##hoff
porte
ferently
uration
ime
linkedin
divers
onomy
shingle
##spective
halle
##arti
extremes
mrk
##iah
##nfa
summaris
##cap
semant
criticiz
##metrics
##vef
##ull
holes
##rad
fmm
diathes
swaps
dedi
folj
decisive
npadj
leven
961
##ips
##illary
##eter
orienta
femme
strain
##gueir
faw
cornel
submitt
reformulat
donation
neal
fans
yusu
atv
requisite
curator
lasted
foc
elia
##gp
##belled
qam
transac
rina
cients
##syntactic
##408
##thic
biterm
##cent
##cps
hladk
##filt
##ours
pil
gaard
elabora
bt
##lecommunications
##lingual
##196
##sign
vila
gramming
ccp
##eps
##135
##mouth
mayor
grammatic
postprocess
066
tabo
expo
guan
medal
mcfg
##584
14715
unset
anonymize
##oir
boring
##778
##coll
scrape
##dressed
trimm
hawk
##rada
atypical
impede
##anovic
##onan
afri
##takes
engels
effectue
##tivated
exacerbate
labelers
##ngs
##version
##minology
outlet
necessitat
quad
703
zaj
terminat
mml
##lated
##aisuke
##efe
whit
variantes
##eadily
##torial
konk
tdl
cvs
showe
##refs
valeri
##atic
##unt
##eling
##tablished
##lton
corneli
##nik
##upon
unite
convinc
asset
##221
quested
msg
bergstr
mya
sab
bhar
converg
iban
##696
agglutina
##plan
fg
sentative
rug
##pas
chall
072
##nch
ssf
##racies
soren
catena
##ikko
acq
##osa
alyz
breaker
resen
jona
tenure
##lios
##rge
##vic
##hard
##ieren
##cj
##selin
##tain
##ntu
##ochant
##nple
prox
marketing
maf
##qiu
brut
sophistica
##ijn
##vat
##orthographically
atn
##aldo
viewer
nasee
pkd
xv
dott
977
##languages
darm
##563
northwest
##786
##epo
llll
troubles
##cph
prunes
subwords
##hed
9410
##fied
moder
##ej
taker
##rises
mohan
11512
beijin
samy
waw
##stake
discon
##vg
##phonological
wcp
omni
periodic
domi
##lica
##lti
wpd
leak
##character
ducer
disambiguat
planners
ltags
tcm
individua
##scl
shiva
overgenerate
bab
kasp
uws
##tify
wrapp
845
groundings
##rectness
##494
discourage
levins
##lves
##eni
1460
infrastructures
unanno
##ezaf
##gat
nara
adore
testament
stre
admin
##sified
##tti
abdu
##sures
perience
hj
##resse
##slda
##ias
zz
##alism
##via
filt
contractor
albe
##ovich
accor
slam
##rts
defend
##sistance
diao
impe
radial
biphone
brow
##ground
##egra
##lder
oliv
957
ciations
designator
##tparser
giga
homophon
bigg
mtp
nece
##composed
ssynt
##shar
##ease
furni
##iy
coca
uds
##porte
swa
iwan
1704
##tro
edp
buildings
##aught
lights
##asser
##hall
hetero
womens
reproduc
plum
demic
403
##dock
##arley
memoriz
##hik
##544
##demo
##gre
regul
092
##itney
respon
##erra
##nju
switche
chew
ponti
##475
gusta
##mlr
rays
##indf
839
##were
zeit
brug
kald
1309
statu
valuation
marn
teres
citro
mille
spill
##287
remarque
alvar
marina
##sheng
##bas
purl
telecom
sente
textuel
##tached
synchronize
fj
##kou
riot
forecaster
blurr
supe
hydro
sideration
##ualities
##rama
2272
##mini
kow
##aatar
vase
sung
gure
##anqin
##ltered
##tell
ganization
mello
##158
##imoto
##hidi
##kam
chr
marne
disperse
##essed
unsuccessful
##gister
##oto
mace
nora
lief
feli
##patt
syntagm
##sitivity
dro
##args
leon
##nne
novo
elongat
##syl
##305
rnng
##typical
##lace
##iography
971
sz
fug
##alogue
modulate
struktur
innova
yea
specifica
blo
reel
soil
purp
buys
##iley
wester
##bei
##viation
theorems
##eration
##wait
##paper
##eff
##iple
##acted
tous
cns
heck
##tsch
tsf
forth
prog
##178
bry
entite
bipolar
##msn
##cuous
trian
##orm
branc
##210
wsre
studi
operationalize
##rre
##nese
transe
##shore
exclu
decomposi
##aft
##lect
subscribe
##sko
##dq
edness
##operative
##employment
1461
##hot
rek
##plm
##lec
gou
##recall
lmt
importante
stitute
taul
bid
0045
unter
epos
##nounced
effe
##rju
shuffl
avant
maintena
##674
mrc
##ambiguite
##fact
usr
barret
abbrevi
fragil
dissolve
fie
##vectors
nich
##enza
##tage
gori
desert
aber
referen
opi
designation
##cek
possibilite
##1603
1735
elucidate
todays
dnc
stereotyp
sino
##ape
travell
projectiv
ima
lia
secure
modele
pris
hut
southwest
raison
georgio
diploma
##gic
##esting
##step
tg
ley
subsec
roma
##utional
##185
commodit
##102
dgs
fy
##ction
dlm
convers
##lating
holm
jimen
breviation
vivi
rv
crist
##earned
permut
1210
rtg
ccd
##lcs
##isa
##pot
##ativeness
##ept
##aver
mrp
xc
1163
glor
##mediately
##zuk
##sel
scheff
##480
acces
calcule
crs
eleve
coop
##cluster
033
collocat
subproblem
nap
##representation
##concept
##study
bilingue
##generation
##genic
##akes
lien
cip
##dao
homogen
conduc
ttt
eac
hea
jeg
##kh
arch
esg
##nski
##tempted
##icular
artif
##tie
familiarize
##grating
##distance
##162
currenc
shank
##eser
widl
birn
demande
##jn
certifi
mlc
##arv
##572
keh
##metric
##ination
xm
elaborat
##pud
##cle
##ndo
##mise
064
jail
tactics
##acoes
negator
##llr
##sib
cmp
##llc
logg
##aq
coreferences
##different
appoint
##ukun
dio
arb
associee
##nter
burna
##uro
sls
corrector
##help
##ggi
2592
sees
classique
##204
##summ
##zvan
scus
solan
steer
##riz
xz
cherche
##ried
##csc
mmc
relia
tsr
##eca
peri
##warded
##pattern
##aoka
##people
##abad
##nov
##final
koc
##pris
camero
##lgren
apo
##brecht
##ervin
##pad
gos
##ischer
1610
nile
cada
##mak
replay
hank
##505
##berto
livi
##uo
##whole
jus
##manda
heli
##itive
##kara
principe
##aged
##uity
dea
insist
##nces
magd
##hael
##sf
plm
yid
##rino
##cla
##shed
##nay
##fier
scm
##sho
bang
##743
definit
##sol
pivots
dokument
##5000
drain
dau
krus
geta
##clusters
benefi
fbi
##liu
##ysis
##tsov
##izan
tempor
quate
culi
##boek
regroup
##kku
##1998
progres
##552
bough
tsv
folder
##pton
asru
chk
tower
##bject
##fran
##tino
semantical
##apan
##uq
satir
berk
##ovi
##iano
similarite
##sw
##para
0326
disclose
agg
##etta
##249
sain
##lty
psych
##125
##their
##pacity
##elnik
##limited
##574
expen
repost
##icht
fms
rsa
##257
##oling
##iko
tz
impl
##ais
##dv
foss
reformulate
##imp
bruc
historic
konsta
confronte
##server
##amara
##atype
##perfect
##vir
doubl
seo
teich
##nagarik
##asic
dick
vic
##tectom
##hol
##hmer
ontologiz
gnp
##2221
seung
##fy
exami
##acl
unb
athen
raman
yam
##swedish
##407
##adler
dmt
##erwin
wound
##stri
abbreviate
##family
##cie
##ttle
larg
##zel
##idis
fry
2491
##gal
##matched
##kes
revolve
terror
siz
gaus
976
##hul
maar
peac
##eral
##207
##piece
##crowd
##filtered
pig
##spike
compati
##lak
##nless
mulate
paik
##friend
zj
mccl
invasi
##vd
##tokenization
##ired
emphasise
##jakob
##determined
##mers
##ife
##menta
##sennrich
fications
##1071
##yar
##ternet
##reader
##crawl
##engagement
spra
##erable
papa
dise
selectionne
crow
##affine
afr
##turku
moro
compensat
##crfpp
##magni
volatil
##rove
##europarl
##pipe
hrg
lator
alert
##essing
intell
##artist
##allard
flor
##stressed
depre
grena
##efining
genders
acg
ppt
##avel
ognize
orke
git
##lark
bud
underperform
##strictions
cun
##lvin
formations
##kp
##stra
atica
##kok
phonolog
##scores
##629
karam
##kazawa
tages
##give
##grounded
tablet
dtl
fundamen
##asaki
##organisation
inclus
##doubted
1320
##ved
physi
guin
offi
slink
##elbo
##749
##223
ket
##kowicz
##ventory
##numeric
palestin
##specified
##658
##vik
desig
procede
bara
comfort
photograph
interven
vention
zy
phan
castellan
quests
recruite
humain
parative
vill
##ulation
clin
##malised
schn
parle
##008
##00000
##677
interfac
trieve
awk
##imers
##rried
333333
##weighted
##fre
zoo
##aspirat
nair
ideation
theoreti
discours
##inct
punk
##claim
excl
##china
##generated
kodomo
percolat
terminolog
singu
##ects
scientifique
##glass
##rization
misrecognition
##tze
##plus
beef
daille
706
##hno
##nomic
##scribing
klap
servi
forensic
##orientation
##schler
##dberg
##erated
advertisement
##506
sark
nay
##ltz
statistique
##prot
intensifier
recommen
riddle
supertype
signification
blogger
discriminant
sundar
forschung
overwhelm
##926
subgroup
##dition
##cache
donna
##accented
cphb
quantifica
##abou
collabo
##later
##mate
aesthetic
##scene
##sms
orne
##012
passiv
preorder
apresenta
osv
thankful
riba
theoret
##uti
uncon
##illion
collin
cwn
##hangyo
clinic
pola
##oci
##einer
retro
obje
##skip
subsample
verbalization
substruc
matrice
##bab
##wire
acteristic
dependance
ican
unpack
abbrev
justic
anyway
##iam
sti
revers
hoffman
collab
portugu
morocc
dima
allocate
rudnick
automo
9199
habitual
dinh
##stern
synony
multiplic
subsystem
##cintosh
##brahim
transplant
accommo
availabil
fsd
##ussier
granular
readabil
precondi
metodo
ubersetz
apostrophe
avignon
cassidy
catalunya
desarroll
eveloppement
fatigue
haveliwala
humphrey
jagarlamudi
jeopardy
luyckx
macwhin
nederhof
nespole
omorfi
outweigh
paroubek
pelletier
reminiscen
resumptive
salakoski
sanfilippo
shepherd
shrikant
snowflake
subroutine
subtitling
suzanne
tamchyna
torralba
trancoso
tubingen
underneath
verbocean
vulnerable
warlpiri
zuidema
butterfly
detrimental
gurobi
mkcls
peninsula
phoenix
prljav
tajikistan
wapiti
##kjemisk
knowitall
lilfes
metastasiz
norvig
ranzato
routledge
sanchez
shardlow
weblicht
desenvolv
difficile
kanerva
navajo
zernik
estrutura
souhait
aphasic
leuski
bachelor
iacob
metzler
nkjp
tychnow
erlangen
harbusch
instantaneous
fonetica
hovav
gasoline
macdonald
oobv
pashto
klenner
communaut
fenetre
renaming
scarton
dichotom
absurd
mausam
cricket
eskenazi
bloomington
hurdle
lebanon
appendices
eyebrow
linguateca
unfinished
kukich
hypertension
stylesheet
chimera
ontario
reconnaissance
garrod
takezawa
zampolli
idiosyncracies
trellis
jessica
swanson
zettle
kotoba
tomanek
espino
markovitch
voseo
stol
hepple
rabiner
ruppin
dispositif
vietnam
automobil
minimisation
vvfin
skrit
encour
likota
telanga
dixon
uninformative
semdial
cucchiar
gemination
prison
mistagged
munich
palette
ideologies
xiamen
physiology
faithfulness
toolchain
sclero
caveat
clooney
cancelled
circularity
semester
entrench
diversified
forbidden
stanisla
##nvald
spontane
upperbound
trond
jaeger
autonomy
digression
paramount
encontr
coherency
topologies
ingredi
2222222
crisp
cater
betrayal
imminent
praha
interactivity
alleged
gaussier
zielinsk
grieve
significative
inquiries
wieling
19104
sunny
mccray
saami
necessaire
ergonomic
ritchi
decrement
##liquen
semlink
bokmal
inhabit
##roparl
loony
capsule
thoughtful
complementarity
unidentified
sammie
outbreak
webanno
plosive
entraine
hisami
prosodique
##agram
marqueur
creek
efron
misinformation
bombay
##rton
biomed
screw
bargain
proliferat
svmlight
syndicate
intruder
grup
annodis
decoda
hazan
magead
ihrc
mieux
historians
hjal
lifetime
quake
phonol
fantas
gigabytes
sentiword
pronuncia
##niak
entrance
thief
pathframe
adn
wtmf
interrelated
##compositionnelle
merkel
pseudonym
lveg
subdialogues
declination
aphasia
hyperparame
sylla
anticipation
bookkeeping
norway
cad
tbcnn
crego
##ttenhofer
##ierten
personalities
##miscommunication
catholic
reseau
mendes
rabbit
staab
##vsuff
sergey
watts
##insky
goodwin
pauline
deepbank
boundedness
templat
##348
hammad
comedy
dirich
knock
wanner
suppos
kahl
##uid
nomlex
##dorff
meij
samme
khalil
penalised
profound
miml
##egawa
acous
bellman
idiomaticity
guha
mteval
##preferred
##blica
kunne
corroborate
unanimous
neonat
monster
oscillation
ptq
scenery
isaac
portman
monods
conjonct
##phosyntactic
periphras
fraud
supprime
ailleurs
centur
##when
gtx
sweat
honour
austen
irex
carolina
powell
kumme
apparait
formalisation
gadget
mx
##qi
proverbial
acero
silvia
subtlex
nbch
algorith
##nikova
hyperpath
suspend
crane
conhecimento
exploded
juman
marzi
respectivement
portional
rectifier
devset
strasse
consolidation
cslda
tukey
adpositions
##lma
compuls
mensionality
moocs
incoherent
vironment
warping
carcinoma
ahuitl
dundancy
##ligible
circumstantial
##quist
lapprentissage
abccfa
ukrainian
engel
milestones
taikei
saisi
codewords
mpg
misspelling
tweak
chlor
shuji
medoid
anonymised
cycling
umi
##250
naturalistic
24617
coef
bosc
wlth
shuo
rendement
ungram
##elia
syllabus
##rag
unlocked
1956
propn
passengers
soldiers
misconceptions
##irndl
ferguson
mnh
##atching
konstantin
segund
##robe
newscast
verl
etrangere
1931
distraction
##regel
##otvor
alphabetically
vania
henr
explicitness
hsb
24925
ceptron
curately
peek
boldfaced
consec
langua
apprentice
reinhar
5882
lavr
##tri
konzum
proclitic
counterexample
##gration
noisi
titan
intersected
blob
variates
tfx
incidental
statistiques
supertypes
alternately
bruit
duplicat
leaks
emp
##htb
neutralize
phraseology
damper
1592
swear
##ogue
interp
1324
##474
yasu
##harme
remotely
##zo
freeness
##rop
moyer
##ipti
##balanced
hamper
dyads
popularize
kawai
##atenverarbeitung
##ssum
robber
exhaus
industries
csd
shuttle
##disciplin
replicated
microplann
subplan
##unnel
ltg
milan
dictor
mazi
yiding
##being
azp
talbanken
ogi
outlin
lexikon
optimist
myers
dictors
katze
##issa
sultan
animations
moderator
lehrer
subscriber
##ony
lecturer
##hare
completive
weblog
1134
uccide
nectives
dietz
1346
##cross
ilia
lmu
1923
quali
wuta
##256
rude
sei
eggs
baike
imprecis
sas
deficits
platt
iaai
consti
examiners
cruz
motives
athletes
##jk
subordinators
ange
7000
bump
cordingly
bigru
##consistencies
pento
##ishwar
823
##vers
haj
##639
logi
doubling
skim
1903
collaborator
strata
##puting
almu
endeavors
unlock
##rum
subreddits
##ador
guards
nash
silla
smil
##misch
xk
posses
octo
obligatori
uneven
approp
1929
spider
##yses
conceptu
##678
jaime
portals
dette
castellano
clud
##congruent
codl
referencing
kui
ctr
##558
timexes
interrog
portoro
##chitti
dispose
1209
##given
introduit
1815
##hom
slo
##urts
kiku
tactically
12000
horac
waves
wordpress
rgb
chocolate
bv
differents
nbm
rental
##pite
eid
##bau
ferret
bucc
##188
trolled
##nous
characterise
mittee
gli
complaints
##ould
pathways
professions
souza
aucun
evaporat
1921
1432
rudimenta
##raham
grace
dislocation
entrel
mll
firs
synthe
##bd
congo
socrat
jae
teristics
##pron
officials
inexact
digi
subspaces
consecutively
druck
peat
hannan
##trarily
##349
##cki
##alry
motorcycle
##thout
##rmal
##ukerman
pease
##553
balt
textpro
semirings
kristi
patrici
penalise
builders
dps
earl
##597
mahal
kro
peru
##dney
##learning
##rable
##384
22323
congruenc
1341
bulletins
bidirectionally
4044
adver
hacker
ductive
precon
jef
##sba
##trustworthy
058
teract
##bus
schle
measureid
cityu
soap
ury
##strom
chatbots
affiliations
##ecki
abduc
cried
1106
tologies
1701
vendre
emphasised
##qt
1618
##plicability
bolla
boss
sowm
coherently
agreem
summari
neut
1934
unam
anoth
ders
guang
sdf
##ead
ppv
upwards
##speak
disse
##mercial
pronounce
##rio
##gov
goo
gj
unanalyz
takeover
ordre
##coste
loutil
pao
patb
sublist
##yoshi
appositions
##ances
argentine
##math
##ssen
sperber
queens
##nick
##kild
##dw
##909
schm
npl
##stracts
##rer
legally
xw
amino
delex
##2400
indus
formule
##sberg
interne
gems
christen
paperno
##664
##atu
rewarded
rita
koz
##ection
##rist
##press
uncom
icalized
##dex
hammer
esc
##gende
porters
##andrak
sympath
##ntol
erhard
##affect
interlink
devalu
##team
wdc
baye
winners
##ban
jana
timeout
boite
lmr
##179
underlin
##017
revenue
2673
clust
lcfrss
silences
skj
kt
16817
ulm
##oqu
##477
##schrift
##vert
##psy
##missions
ach
wij
cakes
cutoffs
##rian
tung
##lations
synthesised
##rza
danalyse
tiative
debut
encyclopedias
##dtb
subordina
1705
1227
074
kib
signa
subunit
##ganized
##hens
paulo
##four
##kell
##798
sembl
axiomatic
turku
##indre
scot
obtien
shut
##til
wav
##unn
infix
undergoe
nounced
##teau
##usa
thre
attractor
wheat
##rving
troid
zap
shiqi
##eves
reute
##evin
explication
depot
yag
cape
restrictor
36337
epentheti
##nning
##probable
##categorization
tlme
nasr
chological
##rh
passives
##sampled
##193
bnn
salvi
1534
##ych
teh
##947
##tial
##oubin
chua
analysers
qun
##sql
goy
bolded
stig
skm
##hue
integrati
uns
ntn
##eck
naga
farah
vox
##easing
##783
riding
elect
espan
rtf
##917
carton
##uring
tdb
##ific
memor
budgets
memn
##vadj
ilo
expos
##bara
ipad
##1924
##nber
zur
##anabe
##nly
boun
fai
soften
27328
mrl
##452
1587
##uw
##333
gq
insect
##ecke
cour
##ultimate
ethnic
abbas
##774
lcg
pcrf
##bir
bassa
##elling
##ema
##556
##dari
11912
##resp
await
##modal
##erialized
##977
tinctive
##mac
dpm
prescribe
fernande
##gagement
##phr
dessa
hance
##chology
##lberg
14415
##tto
transliterat
jind
hcr
supplements
brav
veh
##pla
##illas
schedules
##trinsically
##cca
##rence
##1259
##bora
##mid
faisa
##fill
tron
nants
codi
fice
##858
##antly
rana
montrer
shei
##marked
nakh
uiu
sbd
##dah
bef
harmon
moss
tles
binder
##onicity
gau
##gui
##ijk
terior
sanction
bali
##tagging
##137
##moon
detaille
csf
mol
##pora
##cover
exhibition
##cons
rothe
multilingue
##mult
percolati
##second
overlay
rape
nhr
##vents
1631
##ystem
##tract
1112
propa
##dag
util
twi
ingest
zbi
attacker
##arios
##vning
##lando
##ads
jams
##nfl
##qn
rum
lisi
syntact
yima
##masz
##549
rankers
##268
24725
kerat
hsia
tester
##ande
##stod
##tail
syll
##eye
regl
innovat
##wing
grnn
ngr
spore
boye
##1200
recap
liebe
syno
1009
gods
##478
ltc
##ership
molin
volve
##eal
##nted
morri
##gy
arbre
lugar
##cbc
##yne
pagina
lough
##895
guada
##elo
nonliteral
##iste
##gger
breathe
veri
llg
##md
shoes
##iri
##lei
053
##hang
##874
##lamud
##ffi
jsp
2782
capitalis
##delo
haute
603
iconic
##icate
loosen
reestimate
##sig
presi
maru
##ulu
01110
sik
##173
ole
headset
stmt
logge
uzun
##street
##had
joue
##pology
elicits
##eo
##rifk
guar
##kovic
rien
##would
##mun
##parsing
parce
21622
fluents
urg
##ayaa
pernym
lsr
aspirat
##enses
generalis
ting
crew
whitt
finn
sfc
edm
##hast
nld
##dz
##kayama
##san
##rid
##chu
##fle
##vzn
educate
follower
##109
sjo
kao
##atz
##nlm
ouvert
taille
##interpretable
gradu
sopa
##ngua
unclassifi
##roach
##eature
pelo
##ones
rend
anotac
##pond
determi
ioe
indefinites
ecologic
##gregated
##mographic
moshe
##277
minis
nuc
##plements
##aller
##cam
##ete
##646
##orship
##anc
schille
narrowing
##ntec
vous
##dalida
##omp
saf
##ict
##hana
##appy
subsumer
ang
##scp
operat
reassure
##bing
morphologie
irrespec
##ruv
##ctic
##rical
concaten
mare
proponent
##beli
##hle
##stry
stray
##iana
npc
ideolog
##sumu
##iocre
superman
##oul
eralization
##048
##cuo
parametre
unambigu
divi
csp
1942
upgrad
distingu
##scored
terval
##cordance
##matism
nul
malize
##utiliser
##research
plicate
alyzer
##dn
burma
resembl
##evel
##human
##void
msv
##emen
jes
##utz
loni
##ffran
mtr
lustrate
##cting
##duncan
##ressed
##omain
tracy
navigat
##arpa
##260
basu
##paths
##hyay
pourra
tlcs
##ortiz
##qua
##natural
ramp
##iqa
lsf
##opular
##thattn
##eve
##sured
devin
reconstruc
fano
##eleman
##macher
##290
lld
bounda
1707
##aureli
capitals
palat
##ild
lla
mee
##finder
##1148
coindex
##coding
##tenant
rums
settl
greene
exi
numerat
rop
aggrega
##lors
roi
myth
mong
heido
##erato
amin
lexc
##516
##itao
morfe
banga
##irst
spreads
suggere
arsen
mathemati
##bold
conta
##eating
yen
fixe
##rowski
thu
##nis
##imately
niche
pmid
##lpcc
1047
finely
burstin
allergi
biao
##emel
mechan
##stantially
lind
undo
##tenir
##ljan
slug
acceptor
biblioth
099
##eraging
uzz
1455
##matus
spondence
kiyo
##allach
comparer
roads
##acterized
vient
waters
0120
##tori
##similar
##199
ewa
cogn
##endi
##phin
##arland
builder
##azi
phonet
nagar
##ollen
##uard
##wie
##vist
##frl
##izar
mtm
marion
##ront
##annak
##itch
graphes
##currently
##acial
mmi
ost
sensation
##enemie
deni
cva
kad
sunder
omg
amene
##llow
crowds
##dam
wii
icc
tack
chau
hpy
##iousness
meri
pani
weese
timetable
fps
##machi
##allo
##science
explicites
poste
##uille
cpr
##278
##3176
birk
##trix
##nella
##ffen
elevat
subcase
configur
lexicographical
rtp
dispense
extensib
##opez
##unit
##util
##694
purchas
##iaks
pata
kap
vat
##anned
relatedto
##197
##266
samt
okan
##zy
abusi
maur
nka
vate
oblig
rub
eoe
##traction
rience
eij
irl
responsi
##oulder
##annotated
refo
overrule
alvis
sme
##uction
disciplin
widths
1071
##odified
anja
contentf
tiling
noz
tlm
furthe
elli
##ises
##omatic
dz
##ormalized
shiny
0434
##enfin
quale
##tip
##froni
credib
##arb
##readth
##rob
pragma
epl
dor
##quer
##lj
remarqu
##pending
msm
1096
##ugc
shimo
beh
##call
lac
langu
feminis
##nv
presuma
gek
anatomi
piro
kash
##jams
##crip
1890
##ativity
##kui
##nta
igrams
##arized
##fei
synchron
acord
##rnan
##sampling
7985
##oper
sync
seque
##hya
##rand
##rne
initiat
isfy
indexe
lak
##input
##siderable
masters
##senti
inflation
##pit
##stellen
##dent
##abb
gey
gion
popula
golding
##marn
##lz
##iss
##ersen
##cade
ordet
##pdt
morphophonolog
##139
subt
##sjon
nect
##738
tionality
##ermann
cref
gear
##apex
inflat
ogr
gum
##fox
##dings
##212
aggressi
longitud
##cerning
interpola
##700
catalys
pdfa
completions
ssa
##dialogue
##464
##koff
10711
##hlen
polysem
##669
##498
culminate
bridg
##iers
rant
cholinguistic
randomiz
##umble
##mars
assim
##automatic
mesuree
reinforc
041
##fine
##frequency
piet
##rdf
##glot
##glm
cach
obt
##iary
##ivit
breu
hume
ribe
comrie
##addy
1411
mutate
ducha
dbl
##tj
##rika
michi
##ratz
remedi
nitions
kd
essenti
dre
illustrati
ogre
mcca
doubles
##bytes
##gun
##reordering
##336
##zhi
facult
##lude
dens
alent
##erg
iry
##sedda
ske
carp
sanda
ncc
pavl
prospect
unpars
paradigme
1922
##mori
##ords
insure
lexicalize
##rig
##category
produ
##die
shira
##url
irst
impacted
##zien
colle
haha
beha
cline
##aiza
1641
##litical
##mps
##lish
nfs
alloca
##esu
##troducing
couch
ans
##ovo
greet
rau
upgrade
##nathan
spi
alw
hyperpa
propbanks
##agreement
##nchor
##parallel
exer
##khi
##817
4869
##lsi
bacc
ama
##nnis
cep
##trust
requency
amo
##dictionary
##244
scient
yw
##entation
##article
spm
##jnp
##izu
yp
##odel
##timated
##grammar
binne
##0010
lbr
nical
##nmar
##morphological
ferentiate
cdsm
sama
alization
lch
##tomated
paz
exponentiate
##bn
emitt
1090
##ifiability
##original
##eed
##456
melhor
##atches
##orman
##tified
nnu
lear
abbrevia
##classification
##tlm
associe
joos
reflexiv
shima
brac
eca
##ditioned
##dlc
##analyzed
rgp
##roo
808
##uct
anlp
deepen
##qual
handed
##xun
quit
sheeha
##req
dsr
##guistics
cova
lrd
##mov
karo
delm
##gorized
##titious
##solution
bec
##emente
##mat
ora
##ived
##src
handler
##gawa
##nj
##nents
##iming
##hmann
##igh
dispers
gust
##gene
##nforcement
convk
##positive
yap
scripting
vent
##uong
##dered
##inv
##labels
##nals
##nad
yori
grub
##eeding
entertain
##lung
rrc
facili
##elson
identifications
emd
##scheisen
##002
dn
plaz
santu
##iew
1059
interoperab
dsp
##7296
duch
1012
##oke
wro
1078
cilitate
pse
##uber
alive
##0318
bran
##wul
kac
746
actu
##rnard
meters
witt
bdu
heure
##computer
eov
##countable
##ark
sumer
sophisti
backs
stri
santi
##sted
ads
##ases
##irik
##spi
##nyt
##iang
##maral
fras
kolo
##cide
grett
##ezek
seri
dob
##respect
##find
##logy
synchroniz
scandi
libert
abus
##articles
cutt
durre
##legi
##ller
emma
msc
niet
##jour
##1466
##sq
murr
##play
##rme
##0189
##senses
##expression
ctf
ira
milt
expressi
##sten
jak
##ogy
prestig
3600
gonc
##0113
##ouuoo
##cell
carbon
casse
heter
gamal
##built
##uje
##944
##kia
##kk
##ozy
##spoken
##writing
boni
fel
externe
##lists
##ender
##nton
nmr
necessitate
neto
##bling
##ibun
##ris
casta
##thal
adresse
##arities
tribut
##ausal
aide
wool
##fan
##roth
nuts
##valuation
##ased
magn
##earn
##fication
estimat
jai
programmatic
mz
perts
edl
##ticated
##wel
##anja
##hijie
##grid
##acking
riesbe
heteroge
##tier
lares
verha
1121
##ayya
belongi
##kler
##umi
heav
categoriza
mesn
rescor
hag
##idian
sooc
##sok
enfant
crea
##tric
hari
##frames
##zz
hee
1746
extrapolat
##conditions
##iable
##parse
satisf
##scher
##kaya
wv
##cased
undivide
nsr
nico
coo
##ventin
webb
mj
gregate
lemmatiz
endow
pij
1302
##dre
##ionnaire
parisi
##fragment
metro
##taa
##service
##ahm
rong
##check
dml
manuel
##ushi
##russian
nicol
##czech
##paring
##italian
##therapy
##hongyan
##ettig
##principle
rever
unrest
depres
##tantly
triev
##rings
##lk
1842
argo
jokin
svar
##chian
literatures
merk
##utterances
ministic
##arra
tialize
conserva
baron
##uating
##ndy
zai
##motivated
##spatial
##schen
1147
##anaphora
##center
tsm
kata
##wissenschaft
##jective
##fold
duda
nization
oss
tuk
##kker
##front
##ala
naz
homer
##june
##bayes
##reasonable
##373
rup
popul
respons
##status
##break
overcom
##nant
localize
##qui
##political
##passive
##food
##truth
##osti
##476
##explained
separati
ceci
##itt
1609
##altered
##yman
mein
consecu
subtracti
cij
dlt
1161
rami
##held
minist
##holz
##806
##belief
##araka
##143
variabilit
quantize
sere
cass
rig
##japan
gonz
ccr
##controlled
##skill
##graduate
##003
##stories
reimplement
ded
##uvain
##ndez
acco
goel
##tokenizer
##pathy
##erl
##hearer
##activity
hex
##classical
hyperonyme
##checked
##vvn
##bil
sortal
##gual
slr
##shkin
##egar
##proof
facile
##955
scd
##pol
##restrictive
##157
##497
##325
##ngston
##warranted
##rija
##1465
inferr
lca
##nsy
deduc
##amman
amand
qalw
##woman
##genstein
##manifest
##burst
typographic
##zweig
094
##fusion
##hedging
##nooj
##akamon
##melb
dhr
sej
1550
etition
adva
##3366
cran
##bp
##comprehensible
##590
##holders
toponym
##jar
##ack
disco
##regex
##013
stimulat
##rthy
instinct
##segmenter
##anne
ire
relev
necessar
invade
raven
geno
##plicity
rey
##color
##seria
##jko
##545
##impact
##utze
##coref
passer
houses
alem
##make
cdl
##harma
kup
##lizes
##tools
broc
##fast
claud
##ieur
##placement
machin
##song
##tab
9500
stitu
##nost
dren
##ugu
complicat
##fter
##drop
idle
##eared
chronic
##itions
nominalize
##852
##ssein
##yoo
##const
mitigat
769
##dus
inch
archical
##logs
##ikka
tunis
##osite
lilt
##afp
##cess
evolu
##ype
##ghia
##coop
##trics
##clausal
2652
dona
categ
babys
##zhu
##hesion
griffi
##lippi
glob
diffe
##modified
##163
##simple
##1120
##saurus
lean
fri
##sus
soo
panic
interop
haus
##olle
##illi
##tance
##liens
arri
deli
detiquet
lari
rephras
##bol
##conc
cag
##ftm
##huh
ceed
schnei
drum
##bad
deliv
nils
minimis
unsurpris
##och
##ordinated
##foot
upf
nativ
propel
tsp
##nel
gorm
regroupement
simpson
pscfg
##435
##itosh
purpos
##069
rib
##oud
snake
narrator
ajoute
acte
##iation
##rou
passenger
misconception
soldier
##listed
graphique
practitioner
yearbook
##uter
phillip
1136
##omena
dosage
croc
inconnu
stereo
##ietz
metarule
transposition
##ilane
##1529
1872
evp
orthogra
##maah
recip
##194
tectogram
informativ
##yanathan
difficul
bam
determinant
docq
##mated
##mary
##mukhi
034
subfield
perturb
##stad
rhetor
##ook
rasa
##rekt
##oop
##182
expec
##ingham
proje
searcher
micha
npap
reloca
dispos
##pping
nucl
##uncion
occu
respondent
##souza
##uhl
##enna
infrastructur
##uted
hopper
funk
pronunci
sysl
##cooccur
indique
fiber
pert
lamel
abbr
pam
orthog
immigra
adminis
##academy
##itte
simplifica
vacu
fahr
##setzer
##offthee
rodrigue
##720
tava
idiosyn
##discrimrereorder
inadvertent
sornlertlam
##kommutasjon
21212159
arthritis
attorney
blogosphere
brussels
caretakers
cartagena
champaign
corpografo
crawford
embassy
eshghi
gestodene
gustafson
hagiwara
hajishirzi
helicopter
inquisitive
jabberwock
knapsack
kravalov
krovetz
laalighfik
lempitsky
macmillan
manservant
marijuana
motorbike
nosofsky
obfuscated
pharaoh
pietquin
propriedade
quasthoff
rastogi
relacionamento
satisfactorily
smolensky
sorokin
stokhof
ujipenchars
uninterrupt
valitutti
velikovich
velldal
vertebrate
wheelchair
wisniewski
wysiwy
zechner
agricole
clickbait
evgeny
figueiredo
garofolo
neuroticism
oviatt
pseudoknot
reimburse
smeaton
stakeholders
utsuro
bioexcom
dijkstra
hillsdale
jnlpba
kirchhoff
mazzei
piwek
safeguard
wunsch
haksayng
holmqvist
kucerova
momresp
unprecedent
zitnick
##dwlrq
aluisio
apologiz
collisions
cosmetic
lacuna
merchant
penguin
ishikawa
ferreira
amherst
shutdown
srihari
yoshikawa
halogen
heylen
malagasy
msnbc
murakami
giesbrecht
plagiarized
uresova
polyno
llorens
tajik
aifdb
dentites
mcgill
dynamism
1143115
aistats
celebrities
intellect
kameyama
yamcha
cartridge
synchronisation
interessant
morreau
sanjuan
temperley
abrupt
enamex
poverty
semicolon
idiosyncrasies
##alqala
cogsci
pictorial
winkler
tishby
tgrep
uninstantiated
hkust
revitalization
discontinuities
opensmile
ozbal
unmanageabl
videogame
brahmi
pydial
longueur
mcnamara
tinysvm
topotext
minecraft
fordyce
bahasa
rajendra
cassette
##prentice
dicionario
fichier
enx
immense
juraf
vasude
onomies
zobel
autopsy
ohala
crocker
pencil
breeze
stanojevi
sundial
equivocation
masaru
subdivision
tribayes
emmanuel
##shburne
eynde
fabbri
reponses
silhou
costello
insuranceqa
veridicality
imparfait
sprinkle
eccv
##gidit
openoffice
dalianis
lieberman
obtido
anecdotal
veterinar
atributo
desperate
unanswer
abelson
kogure
endeavour
protege
guitar
bdlex
plague
ciphertext
pianta
antworth
cellphone
brittle
ezyk
patience
rvnn
demarcation
kinect
multiplanar
nserc
##naissance
incredibly
pineda
tangora
payoff
subsidiar
##dop
llitj
papier
breakthrough
noisiest
mpeg
##cumstances
lssvm
frmg
talmy
warszaw
menzel
buntine
cromier
emacs
widgets
ionescu
pushdown
rinaldi
titanic
swales
fredrik
##bagofwords
matlab
173180
##sgemein
gravity
ostia
amateur
splatter
callaway
pialign
sleeve
captain
yourself
gardner
obstruent
fidler
shrinkage
idafa
schaefer
symbolique
advertisers
janssen
circulation
shindo
handshape
jazz
##miyet
523530
armenia
rohrer
zimmermann
stivers
henrich
repetitiveness
keenan
califor
scdv
alexandria
minsup
pratique
venkat
larousse
litter
italicized
kolak
##iru
##ishahi
vinod
##ligt
hapax
##czyk
drunk
esteem
eytan
incarnation
jagad
ntnu
audible
modularization
redmond
navarr
condensation
lonneke
rosner
flirt
scielo
andrzej
confidential
buzz
polgu
cpm
rheum
asleep
seamlessly
circumfix
smuggling
truecasing
##oft
defendant
musik
ontosem
undertaking
shachi
alveo
romary
clashes
glacier
##crossing
clift
secondaires
digitization
unintentional
unbal
##alizations
halfway
hanzi
snack
mosteller
trunk
panevova
lifespan
##zybo
dismissed
furnishing
exmara
weekday
servant
steak
tversky
ecosystem
yuille
mcdon
classificadores
guaran
thwart
svstem
darrell
syntaktische
scusi
instructive
pierac
pulm
defqa
onomasi
cultivate
radix
##jeol
deaccented
100108
helgad
nommees
entretiens
diamonds
subheadings
economist
nothman
lunar
pricing
unipi
6133101
dynamique
encia
galton
neologism
hillel
genetag
amarna
dressee
verku
aya
covariate
##kpml
negotiated
innocent
immigrant
milano
psychologi
grocer
skirt
puzzling
arjun
sancl
valentin
cruel
reconfirm
awaited
remem
jusqua
##imposed
jiten
heeman
treasure
plaire
tasty
repeatability
lopes
dssm
unlinked
linearisation
atkinson
##fangen
unanswered
initialisation
telicity
prepended
##voc
lcsr
formativeness
vinay
neutralization
levres
maxpooling
##jevic
##033
skadin
engender
chiba
southeast
bulb
deps
subgrammar
baumann
annoyed
convnet
swerts
##sons
amster
psychiatry
varga
berber
furui
dirndl
semantische
##1244
boeing
rifle
ostag
saeed
ipt
81782
rocchio
rempli
##worthiness
hypothesizing
hunger
kenny
##spiel
troponym
islamic
hamburger
postech
mihal
kommer
terminologique
synopses
1261
convergent
spence
corenet
spellers
submis
psychol
awaken
##fonctionnement
##guang
intensify
clutter
denied
arabe
factoriza
spoiler
hirose
halcea
mcta
victory
laham
##upam
maschine
partha
sobre
thirtie
38539
consciousness
tidy
applicants
twofold
##phisticated
paign
enwiki
1045
sponsible
verged
inhst
misalignments
flairs
cristian
cogent
coordinators
mutant
folklor
##cond
subconstituents
ruleset
meaningfulness
conscient
risque
fucking
merci
nomad
jasmin
jero
fructueu
ibid
braun
contestant
ztf
##rfeld
apprendre
phonetique
1889
##nebaker
tdfs
accelerating
dereko
sslm
heller
morrison
ratner
abbre
unpacked
sloan
7580
cluto
encyclop
typol
##tore
khur
simplefeature
blanket
droit
6980
muscle
lemur
regulat
yomi
medida
##emony
myster
louvain
hyman
gauss
salad
dissect
193119
friendliness
chromosome
heid
colloqui
##akech
##mst
incline
japa
hyb
0047
sebas
5976
yoshim
rvg
morphotactics
mooc
rhetoriques
potentielle
rabat
##rasmus
##rendre
disappeared
smileys
foreigners
mligs
factivity
instanti
##netic
manufacturers
salsa
partitive
regexp
multipliers
tpc
##saloni
weinstein
subgenre
marci
orthographique
assis
memorized
couraging
stabilise
##inova
firmly
permitt
prohibited
##twin
duden
##under
rgc
roux
jews
revue
dado
##nded
##ilarities
marchand
tatar
ueda
periodically
erased
retail
hymen
vocalique
##namara
decriv
ety
angus
##skander
murdered
fibers
transcri
cpsl
povo
heighten
stanza
delineate
glau
stylis
##derspecified
##coli
lump
prefecture
##nesia
drill
jpi
##qgr
sjm
christophe
nq
yearbooks
counterbalance
schmm
##discursive
wikif
superstructure
##fois
##duc
ajuste
##bf
determinants
mezzo
pendence
stump
formul
termcat
tokeniza
instan
wilh
##amming
pyr
chahu
##623
admm
lexlcal
##auvin
bericht
withheld
engaging
tialization
zad
academie
entman
meteo
forgot
ludz
hierarchie
iowa
suppressed
loudly
hos
sesame
traduit
##uriz
medar
cdt
sintatica
##cant
incidentally
discriminants
##rroni
forensics
alla
trindi
##nger
##lient
interestingness
trails
mcut
rolesets
symmetrically
ocd
normality
1055
fash
imagery
##atlon
pervision
ibi
130137
vesel
painted
recompute
##gartner
yk
analytically
corpo
##9637
##usi
sheep
mlig
##inen
malisms
nishio
trash
kultura
verbalizations
kalj
saa
##element
##owa
##tung
##guzm
ciety
##subjpass
dpmm
genericity
1779
northeast
blatt
1050
2941
1164
interchangeabl
antti
sankar
incremented
faraj
##riving
##rill
##ognition
spencer
korp
idref
##evo
lecturers
959
4144
stochastically
kidnapper
musi
beaver
globe
##1373
theodor
##gabytes
ruths
disability
algori
soko
miyaza
courtes
kobe
ecolexic
##atusu
cvc
##antza
##bcnews
5966
2729
rehm
merc
hul
depress
tapi
##kroko
##nika
slator
1517
analogs
binaire
hiro
bilan
zeitung
distrib
##unning
therapeutic
earization
53954
operateur
garian
bcp
##arching
##tzer
forbidd
overlook
1535
franca
hension
strung
callum
gym
lluis
futher
1448
##rickle
##567
1228
delexicalise
produit
ravin
lebo
impairments
##herry
hendri
etiquetage
personnelle
scriptive
1706
ambig
pedagog
iac
bjorn
##heim
612723
yoshino
allophones
pneumoniae
1387
hunting
abhaya
kitab
##serted
dao
##during
ficity
evolv
malism
1436
1073
scold
bounce
stratum
oono
1936
uuu
##cir
##rowing
2109
1482
disjuncts
alect
##western
accommodated
##242
tients
funct
##angu
modifieur
spotter
spectrograms
airlines
conflate
pouvai
incoherence
##hosseini
tematic
##nding
tsur
##lessly
xiaoli
lcrf
##endre
1750
##luzh
leeds
##nty
##possibility
ccf
1620
fido
traj
##481
guerra
fpc
unemploy
lcxical
##jany
zin
tufi
gateway
tq
xdg
reanalysis
hv
flexion
kasn
plsi
puste
shower
##reg
fructidori
blends
memms
otto
1035
peach
##ared
neuropsychologi
1515
premodifier
mao
##coln
##anz
##ood
##888
##1142
##vide
engag
proced
##nbaum
recommenda
stall
##odul
1428
agset
europa
42943
tears
separators
seve
mkm
1038
fighting
##337
twins
1715
stoy
latex
broders
fuck
quadruplet
##lptl
##edict
##bekend
##3034
##fax
9489
stantin
oooooo
usc
neurological
##tsova
kaist
##shortvowel
lez
##iella
##terpolation
##asano
huy
maior
overestimate
##768
filename
refuses
noyau
abonn
emanat
##tasun
##rvinen
##afari
##edi
incr
kolk
connex
##iakou
##ureus
fatal
##terpretable
jungy
beaut
ptk
##gure
implicatures
adher
precompute
##pstick
dunde
loft
contractions
lmi
1108
vsa
ciate
amh
vandal
alban
1074
deontic
regex
strin
smiles
956
planfor
smtpost
htb
darwi
exercised
##omed
editorials
washing
nective
khay
bryant
herman
##copa
##onomy
xlike
##pleteness
vsem
##verbs
dwl
##graphs
maker
login
arne
##ophones
designates
amos
flies
invocation
brink
deposits
##1111
moody
##mmer
waka
sack
protests
bruna
1101
##nels
26327
sujets
experienc
specialises
improp
mcke
chill
coincident
##iteration
##semous
nurses
lhl
ivr
shooting
1839
descri
##ork
1142
keik
##lianne
##gos
downwards
founda
##ffers
vaccine
2742
patti
##153
throughput
##lled
venues
lucie
limb
heil
ccb
825
##aper
catalogues
##57166
##729
ambu
holst
derson
docrep
atns
jer
umentation
1069
resumes
quilli
062
ecir
1054
3312
brig
espa
##603
testsets
conceal
##stor
##laire
scratchy
elab
mauric
jill
monach
tsl
finit
##loses
vale
tobias
okum
nsus
spontaneously
##serv
couver
conceptions
piste
##usage
polyse
##larly
blah
1916
##ceptions
samuels
##kal
anonymis
991
##anche
##nner
gersh
nymy
##olyn
infections
durant
warranted
reimer
happ
##588
influen
##sions
vander
fdl
semtype
##iak
##last
##mode
glean
##hapra
funda
endif
informatif
mange
pasta
maxv
##opt
##nrc
happi
fys
##patriot
monarch
concordancer
coerc
trom
isabel
transitively
##szko
##rar
zps
oriental
marquee
brev
##liegen
medica
initia
##1287
anode
##sley
grader
verbo
##raz
##stage
##mbe
##072
fah
##isheng
subsumpt
##ppmi
bpm
kemp
mills
##aja
conceivabl
egorization
steg
pati
fonctionnel
intj
ubi
faults
adverbes
belings
claw
##grup
##enty
efficients
dmm
dynast
scrut
5135
competitively
notified
bao
latino
broaden
juge
lyzer
carded
ajout
##fen
##nou
frequences
ihc
alien
corro
##rogram
##sonably
##watch
##kas
##vad
gazet
agen
mhm
prisingly
ppw
vaz
mwc
dull
vocode
##laborative
racco
##chn
23324
##tionary
abe
predicator
simp
##243
anterior
pds
substances
##sensitivity
##catenated
##vova
ploys
investments
possibili
summand
mackin
##arable
##croy
aeb
##lead
itio
##clusions
dhar
rsm
##347
mcq
##nll
##378
##ematic
nomina
trough
hund
1214
multigraph
6196
chinta
rile
##coda
touching
slovakia
##ello
##entered
titre
proxim
slik
dislocat
pois
##cz
##orski
##roe
namespace
haz
##scriptions
cged
smit
vcr
##between
bris
naturelle
tiate
candc
batt
kemps
##iber
diak
actif
brooks
elem
hypergraphs
##legg
amia
postedit
inui
religions
##rogen
##aknade
##clef
pande
##occ
haut
1598
5075
gards
##ank
##cloud
crimes
1547
##tura
##jci
tectures
##cgs
1091
goh
voca
##gency
fonseca
##cedes
##larity
##cv
wsdm
reve
inequalit
objectif
roneous
##alog
societa
spamm
rotat
freita
fables
loans
infra
##gma
sfst
##atta
kazi
tongues
1006
deductions
slopes
##lvl
10080
biais
robb
ents
iors
shiba
##cusses
hibernate
hwan
tig
kaal
1371
continent
questioning
tanev
##iku
##zman
antee
##hong
##pac
theorique
qs
##msa
delimite
ench
##inch
##rics
newscore
##band
mariz
##wkt
##ometer
##ott
##tait
asym
##5382
##rup
##apple
negotiations
pbt
prepend
##797
cartograph
ikus
##cision
##ceeding
noemi
mwtu
##xie
##amiano
##vette
##kala
ehu
##dubb
##shop
sapien
zem
##2610
kuc
##sting
##usually
viei
angles
olte
gregation
brake
nenn
##relations
importa
##3664
##059
ay
##nko
nates
augmentations
##termbank
8398
##orists
depe
onwards
##389
billy
##011
donor
actress
busi
linds
##itze
##stock
decou
##nsi
jianmin
##iment
provi
indep
unequal
nondeterminis
gastro
##sium
ttf
mois
gallo
pdg
epic
44044
wrappe
0013
prash
urgent
pathologic
negat
jg
fv
##agh
deja
##656
progra
##rammar
##ilian
##plot
3003
##raji
##iulian
##sep
noop
constr
##4939
hubs
gist
##tskar
##ucture
3453
##coder
##junction
kode
arr
##388
keen
##evic
beckwi
prese
##hris
##area
tender
##quement
##temporal
caracteristi
speec
##fort
##291
##fsa
##340
##jection
ules
nej
tsuka
##tein
##prehension
##dhur
toma
ates
syllabi
1502
fsc
##gor
generee
##yant
dominat
##9121
##ducibility
##ferent
##representativity
notabl
ink
loos
concur
onomic
mdw
##lustrated
formerly
meso
packs
muy
##anno
constructor
drafter
##405
##tran
hebb
brk
elf
europ
weiner
infi
kuru
##cisions
##types
understander
sloth
tgts
programm
rames
drawings
##duisant
resc
##duv
##evich
wicen
versed
rerun
##aying
kod
##gham
holy
1595
##bb
##350
##lary
grou
kud
##rz
gom
swd
4624
reweight
##hor
##rker
##mach
dil
scalars
jani
tlie
##ctr
informati
twee
##tural
##167
unity
##ipati
fica
groote
ante
chie
hafn
ikk
smr
subtrac
nen
sempos
pq
##110
##linking
##hsum
##suring
##anderson
##mino
niku
dani
trous
##dicative
atic
##rnett
assem
parisons
wcn
stam
##mil
yv
definien
compatibil
yung
mess
##264
##mplified
##oku
ballet
phoneti
##solved
advices
kps
##onar
interactional
pupp
##anger
##garajan
evalue
##apped
unch
##ctc
##ians
##reich
pns
redundanc
##119
##ods
##formedness
multip
##smart
##1233
##imilian
smss
##logique
##607
##sambigu
eiji
kach
##aut
morte
##oeo
moir
patt
##bart
residue
##hoc
subphrase
retract
wir
oli
engi
##ologists
##rang
lyz
phyloge
examiner
beast
persua
##nier
collaborations
##prenant
emergen
##amm
redesign
31932
1848
flores
csubj
jmp
##brow
variate
kgs
bifurcat
dedica
##essive
deactivate
wk
cimi
rios
tabe
##bag
nvn
##scape
##rek
2340
hills
schneide
##bm
##viz
cum
suffixe
##anov
##gis
niemi
##volved
##dit
##lent
infini
provoke
##5127
itation
##works
##bine
homogene
traitee
3843
##llery
kluen
fabu
##adas
psr
dokl
##ountain
##xing
2432
##0014
aceit
##alina
reprise
lavalle
mob
##ahle
scheduler
##phic
##nelle
##reka
##akota
##three
bram
##449
moreo
##selected
##bili
##ncr
##ctly
##ctions
jug
zhiy
##9679
##arriage
dmitr
##528
##jit
##323
vins
torical
itors
##licit
rabi
vtt
props
studie
##igu
positioning
dab
##413
particuliere
preserv
colours
feud
missi
##otv
hyun
lian
murd
rhe
lutions
wasser
grob
qj
exceeding
##erck
xt
##grp
revitalize
ove
##ann
elas
##cog
preter
fructificat
##703
##049
candle
bard
gros
dum
visualiza
##abh
##ologist
##iscus
bree
teal
nabo
1127
enregistre
##lling
##question
soning
##processing
##ellig
##tube
validations
##got
tsou
herm
coke
stylistics
devan
1021
chitta
downsampl
ulri
niger
##tf
##erm
flection
##jer
##cop
ome
##culty
hemo
eich
sash
schr
##wmt
ctag
tumbl
ado
##tmg
##zin
unin
graphemi
papel
ned
##xx
##850
indefinitely
2411
##rien
bracketings
##tliche
rab
pov
nonde
##dha
##iterates
altw
geographi
##oughi
##atm
qd
extremis
##673
nsu
leng
##azo
##953
##tok
##tator
lba
wy
surement
perparameter
##norm
##ductive
##vand
moe
##dies
expla
oda
##trices
23724
vals
##wind
christians
##adic
##ilde
phonologi
mulation
fcc
sagas
geotagg
anticipat
##enization
powered
3793
##ote
chapel
ntf
##teurs
##882
2694
##frag
11612
##nbu
elev
positiv
yule
malte
sapi
##brush
dup
agp
retr
itations
extrait
##adri
##eeper
liane
##gile
##306
mcl
testimon
##479
tyl
##eefe
wcfg
##9146
displace
##arization
shap
espace
##isio
ossible
##ody
emis
##machine
butter
kerstin
ligs
cub
##dice
rope
##trin
muit
##rende
##erred
schmit
urge
balls
roo
agra
cmn
##ordan
nois
cys
flexibil
##ikh
##hc
league
shir
##pour
sze
hanke
dough
##tmt
##190
##neously
mayne
lemm
##tables
synerg
afar
autore
lun
viation
hb
counters
potas
##762
erp
exa
magnet
##hon
##hak
polysemi
ega
##tiques
libre
quin
##ante
bray
toys
examp
lanta
##rabi
##groups
jha
seas
lympho
metamorpho
##bership
4154
##zlem
aak
dst
##high
unvo
##sprit
##laus
nouve
##najd
##egant
imperfection
zhuo
##kaan
##dzi
##ssna
avm
usi
assigner
redact
emi
harb
subscription
2052
thetic
dider
responder
##rcm
##vitch
##vol
18018
##284
##ghadda
saga
##nice
agui
##tyler
facul
##oses
wilk
orative
transduce
##4675
interdependenc
responsibil
merce
##geneous
##otic
tiles
##icky
giw
terse
##2528
quirement
guyo
##tems
mps
##kis
##anen
##ked
##verbial
thres
ranki
jeans
debrief
probabilit
##ographical
##error
omd
##guel
##series
gws
giver
kwo
##341
syllabifi
##aumann
01111
##tations
##ambiguity
cms
##ickl
resonan
humb
stark
resum
##lur
##olic
##ndi
possibilit
##594
bs
##quete
##beza
barbo
reste
##pho
unobserv
##ween
dynam
sortie
barth
polit
rectang
vain
mint
dispatch
##maki
##urnap
##tak
##327
##ramid
##suke
##yard
resul
szl
oll
jet
##lvi
replacin
ixl
##ipp
moras
vmi
lorn
palatal
##tao
igram
##effect
##165
##eager
ton
##waj
mik
##hanging
reduplica
pragm
gage
fx
##lagen
luh
6443
##akan
coul
##unes
ftl
##coni
##3554
zadeh
##lema
exprime
ptp
udo
##ayant
##lag
##ae
constitutiv
suw
ormf
heur
yas
3934
gsr
##692
broadb
manufacture
tum
semaf
##igel
locution
feasi
finement
##mportant
##digi
##cuk
##nings
ficiency
##zzam
##076
2935
sinno
##uage
uphol
##1421
worsen
discourses
ramifica
##065
euh
##ingness
factoriz
reb
mens
uris
fasl
eme
##raine
##editor
##ipped
##hough
brenne
##eller
1103
##ngela
multifunctional
csm
embryo
hardt
aging
sle
##ianell
##789
##169
##association
popovic
zhili
##luded
##thus
##828
qtl
##reach
etymo
##ilo
##mut
tbrm
selecti
shit
##788
##ivid
undi
##rafa
itgs
##3204
niak
sonant
accep
illustrations
##sabi
##utobi
14214
kous
repar
raf
1596
##rui
##stitutes
##273
##eas
hist
1492
lre
##tov
##what
##rust
boil
jarv
##uy
handy
##rke
belle
toda
nurs
cef
##lane
##ffs
##lipping
paula
cali
##ibo
##rder
##tenberg
##avi
##rise
##634
promet
##rcher
1286
authoris
abv
##sayng
irre
ruig
educac
##attr
##ljen
altern
chur
nonverb
easi
pdp
##ssible
##oe
ctm
2080
##eld
smu
##ergy
##vka
##ocher
mtt
##ejde
liberate
##oundness
1906
1131
##ktab
masce
##3461
mlg
##yaku
##781
matus
##ika
##saki
yank
veal
caf
##examples
##zug
##ematics
fis
##bles
yielde
##solving
##ject
pcm
##ikun
##http
glm
0022
iva
##icle
##inforcement
##ahmou
chit
##650
##linski
##nikov
carr
##gge
##cutt
##utter
answ
##ribu
lications
##pirically
concurrenc
mnc
##alyzed
rasht
##ago
psg
0002
##xh
crosslinguistic
heng
1724
##mis
incite
permu
##tych
clarifi
bruk
##lemati
jern
##proximately
jav
##blo
hiv
##classes
##mented
touris
plt
##304
##ograph
tlf
prepos
plains
3914
##2121
##coes
##018
##deal
##chang
filed
##bh
ras
##tuku
aoi
emir
##oia
ebm
normalis
##radic
##mance
##ranz
##labial
deceive
##sma
inaccuracy
lemmatiser
##aving
padh
##isi
##ective
rider
##aling
reduplicat
##hate
##nable
grat
parametrize
0538
incorporati
kenn
fluctuate
tick
##avier
signe
motions
##550
##without
gus
##schel
pid
##487
##walkerr
##1363
##icke
##ritz
##framework
ebol
##jana
##hokka
imate
1385
singing
kola
filth
##ohn
##pertags
##eridis
##1585
##tasks
##tmax
##964
kend
concede
##mart
##potter
elongate
lbl
customar
##053
##gate
earn
##sclassifications
##yun
mony
##resources
##tron
typique
ecm
penulti
nieman
quantifiabl
obo
##pb
werk
##fir
##enzh
##pend
##discourse
##dil
geh
##rem
cls
kes
##alignment
judit
hey
jamai
argam
##erait
iil
slim
venu
dicator
basel
biomedic
##scri
##ferences
##osh
##lek
##answer
##ratic
1805
##found
##ajout
rdm
##qd
carthy
##special
1875
surroundings
##nps
antal
##bini
20922
##acine
##jen
##marquer
6206
##mela
##small
##sul
##027
6061
##ziona
##0526
bref
xn
##rina
iya
recurs
##sentiment
1116
krat
conjoint
##dant
##elland
reze
srp
juridic
remplace
graft
nud
3402
permis
##843
##factor
##667
muhi
tabu
1569
##ints
##cept
##tialized
bail
goll
##sid
rnl
##tiveness
##olin
lsd
##5760
wq
lyn
driv
spd
##matr
anx
electr
##jw
celebrat
grs
##bots
##fv
##nyi
twe
##dancers
consideree
##ovy
antic
ronment
rette
minimizer
##iske
istic
##ught
efficace
##relevant
mci
gunn
csa
##grad
2541
regne
seme
recombin
##334
##xian
##sic
incorpor
##mira
facc
##hw
diverg
##bord
noi
grun
batching
##rive
spina
rwc
woo
hoch
##ipt
##lina
##omita
cyto
3702
##kte
##antic
emu
wpt
##ferman
conten
gac
deverb
appel
ssem
##ress
##lps
##means
wahr
deteriorat
##2769
##onica
##naga
qo
mayo
##phemic
##enbaum
ttc
palma
##turn
deve
tweeter
##bug
##vl
continua
kika
##amble
ldt
obscur
preclude
##eud
sawa
regressions
##atives
autor
##olje
##nexor
reassur
korn
shlo
##510
##aws
##antiques
2461
convs
yup
grau
hess
moni
##raud
##istics
##riti
##368
##835
dsg
##ieve
zx
stumbl
##isuke
ponder
exacerbat
##rosti
##vr
##mulation
##ntal
##990
bron
katab
suitab
##saw
##lph
##jian
##initial
sherm
chord
##boost
wel
##want
1533
seron
##subject
##roos
##goal
##etary
##nna
##dated
##mova
##pf
##glas
merg
dvt
##computing
##such
##554
cav
##lian
repond
swing
##xm
##tokens
davi
lave
nova
lii
##provided
##ranj
caracteris
##cow
##icated
merate
herz
diphone
universita
tamar
quantiz
##ards
##eevat
whos
holling
##valid
##rak
##aji
openly
##tea
slant
coocurr
##auer
rode
##mum
##chy
bete
##ush
fau
chv
##rtrag
##734
##much
##section
simplic
abad
abram
##rell
yash
##report
origina
hur
##isc
##uriously
stro
utile
pharma
solv
##hell
zc
##2001
##cwu
##suli
##255
##yao
##ght
##existing
##997
obtenu
phasis
##ppler
##rance
##meter
##644
##scal
##expressions
terminer
styl
##orr
ola
zn
impute
kodi
##hic
##417
2092
dimens
robe
niti
affec
##review
chatt
diam
junct
##concepts
##treebank
magy
##vision
##arabic
##thur
##3327
necessari
borg
##084
camer
ptrans
plp
##sitive
bcub
ope
##trary
11111
heri
clai
##ancho
phoe
##nager
##component
lub
brave
dilute
nsc
laccord
informaci
fisch
polarize
batti
##759
##larger
ppd
##ckman
wah
##puter
knob
rak
##apping
fq
##rapped
efi
planation
dicta
csi
sra
preliminar
moha
##983
aria
appris
struggl
##hich
gonn
##azier
##982
##titative
##ranged
rcs
snl
##186
##uire
##chun
kempe
exclamat
##2415
##442
bekh
##bted
deepe
2832
mbd
##mentally
cardio
##nderee
##gur
sabb
quantit
cili
##uga
##enter
jamo
jesu
denomina
##nced
contextualiz
##0804
egori
##1993
##tivo
##present
##syntax
registr
pharmacolog
mck
examinee
##ohmov
complica
##enny
descript
##vian
pensate
##ylom
##457
1591
ancien
grf
##nx
jaro
##lass
##575
bilex
tot
##ligne
##uary
appreciabl
##enboe
constructi
##nkle
vog
zol
mina
##iability
npn
##091
##threshold
1820
hdr
##raining
##wala
##rong
chuck
##sprache
##minem
cyr
asymmetrical
##bias
##987
##driks
##thology
ablate
##nee
rahim
##uit
1572
##emes
pothesize
nac
halv
glar
complish
moj
acro
##guists
rar
xiangy
##inem
ccs
aise
##elen
sobo
slove
reentran
bok
##bkb
reconcili
1119
teste
ssk
bradl
##lng
##enchen
5365
dernier
##implemented
##vantages
##guy
##esc
ies
kuri
##ontology
##ige
1600
nic
##etzt
##nterested
##ehre
##alu
anatol
christi
##ovember
##ecdc
tama
##121
reserv
##ored
disa
apl
##lets
##piled
##hti
trouv
##sdb
sorbi
9000
##ocat
##occurrence
2963
##style
##9237
##witsch
##nto
##notto
frob
nlpl
##fits
hawkin
ico
##normal
##bre
rin
##airy
##lematic
employer
##html
directl
##online
##jos
##hnen
##application
misinterpreta
##eads
problema
##106
kron
##elui
##cka
##mentary
contradic
##boundary
allomorph
##chem
naj
##visual
##rns
possibles
##prior
hens
mcn
symmetri
##egas
symmet
##sistent
##122
shash
##licking
##modifier
ishi
ancestr
brani
##andre
##situation
guerr
##rty
ambiguate
heide
rsp
yat
##dictionaries
##show
kob
##1642
##cfg
##ega
enced
##owsky
##beni
##mms
##mmel
##challenge
##emba
intersectional
##planning
2875
kyu
##wr
automatica
##agi
krone
##erance
##wide
pressive
##suffix
##leator
0019
##amen
siv
hypot
potenti
naf
##confirm
achronic
##trigger
earning
##ttler
segmentor
ellip
##nage
##igure
nonexisten
cylind
ipal
##five
spp
0129
##derab
eze
##schema
##lop
##taking
classname
##presence
##339
hss
1155
hcm
cohe
##331
1167
##bile
mill
ild
teristic
variante
dpi
##actor
associati
omt
vite
1566
##237
herv
##zte
6454
##mantic
##ield
semantica
requi
##chain
##lwg
##warm
##harwa
##toolkit
assiste
parsi
borda
1423
facie
uj
hone
virtuall
corona
##jas
3638
##quet
kell
mara
glam
##ateful
##488
##rande
tir
prede
##atten
##rouge
opers
microf
##csl
rok
topi
##guinn
##spect
##wayam
##gum
generalisa
##dqc
rescore
valin
concor
sanshi
##license
snowf
1334
provok
##ois
hyen
pots
vagar
espec
frend
lebre
##5771
shl
mainten
##strength
##lattice
##ferable
##macro
##189
2732
traduc
uuoo
##asis
##ctional
##2831
pml
##ripc
##933
irb
##qualitative
yuk
##martin
##shina
##urn
##library
##plank
##pivot
##abinet
impres
##hesive
##iva
narrat
rende
##endo
0020
vph
akl
diagno
2462
##factory
##throw
aus
##203
mink
3823
##egan
##ttig
1905
##activation
##nation
resi
stephens
##enne
##mont
##hub
##nial
##middle
trauma
##dellin
##ielen
quar
rnm
zahra
pale
syr
##dropout
##effectiveness
3337
##zn
##ghani
heine
avi
sank
##commercial
##cis
opportu
##insert
##theoretical
##lga
##paragraphs
##034
##303
kompa
unparse
##repository
##ams
##1985
##hotel
##worst
delimiters
##daniel
astronom
##track
##fel
##transcribed
##concord
##iped
##iquement
vestigat
##blatt
unica
##timeml
macd
rote
##subevent
##moz
mala
##subtype
artifical
##container
##capability
peir
##rma
##blue
##rev
##pruned
##3000
pich
##surements
##achten
ferm
##cious
##9347
##ctors
##pronounced
##zhong
##lid
1339
vend
tuitive
##conjunctions
##fective
##lambda
llng
intermedia
039
##cdc
##cen
##tella
unshared
##threads
##oder
damag
chandra
##ecile
##croft
##monkey
##recipient
##bucket
curved
##hey
##filename
kuwa
hilt
##arry
##piccolo
##vardial
explora
castel
##airport
##forums
understands
fabr
##zm
unfor
##treelstm
nlc
ceeding
postulat
##ghan
##attractive
##supported
##idades
##surgical
##rro
##spr
##year
##advisor
etiquete
9501
heik
##tig
1415
##events
##filled
amalgam
##usz
##irstl
##mara
##shock
##brink
eras
##3341
unsatisf
contrac
##buy
rino
cze
##sionality
##ndra
##101
##essa
##lisbo
##chuan
publica
witte
princip
##internet
##aro
rae
##builder
gss
##pressive
##nology
##dallas
##oretical
##texas
##meet
##week
##ivi
##suru
##accord
injur
zah
##hdp
jans
##rums
graphe
##richt
yyyy
prepa
##suka
##iffe
analog
ponym
##smoothed
##mutter
##ssing
structu
##utilisateur
##azeer
##stratum
ead
mug
cumu
##ples
##ascu
suas
##ssar
derivat
barri
##letter
##tmers
underestimate
orde
##lth
yac
##992
intake
##intuitive
##errier
##nol
tati
1174
##392
##weeds
ccgs
witch
##closure
niza
##sole
##uous
##dahl
##author
##ebret
##zc
conventionaliz
##blob
kalam
##inks
polydi
repres
##acquisition
##ughness
mellan
##thography
##direction
identificac
beli
complain
##ono
nose
bega
orale
##hole
dee
rts
masak
basi
logo
##clust
urali
lucc
##ceaf
##tness
##kota
coexist
consum
##gles
##wler
##header
pmm
famil
##technic
##disputed
##prev
retire
kosi
verbalize
##lez
pust
undir
##stance
##again
oblige
pfs
kc
lema
bren
encapsulat
##court
##guide
##xiao
satt
##755
winn
compliment
##gnu
##nti
##oooooo
##tered
utl
##rsman
prelimi
lokal
cbt
lemmatise
##patient
##egie
flipp
##asked
##alias
##variants
##comb
1086
##790
2323
##operator
jt
##946
1041
##manuel
##2554
2900
surfac
##oca
10511
##nstein
tsunami
##276
1417
represente
plausi
##eza
moham
qts
2923
terminol
phenomen
railway
noodle
boxplot
##wik
##wah
croblog
##bett
relativa
rhetorique
nska
tradiction
milestone
kommen
diphthong
neau
morphotactic
vendor
##marker
netherland
cooccurrent
politician
rectangle
hostage
##alp
##hypo
##ixing
psychologist
novi
lextract
agha
##495
connaissance
##vale
0534
consolid
discontin
samps
exponen
shak
##inflection
gwa
##tivi
##vocado
cett
betwee
##369
hostil
##clai
interroga
##arlanc
##perf
##samy
##laboration
##latt
##mics
##fected
0221
termina
##zeit
##till
##fish
##alpha
##security
##varian
occupa
maso
manufacturer
##terized
righ
morphosyn
kunz
##xo
##869
scam
smiley
sytem
2948
##lighted
reformu
afterward
##wasaki
##sty
##1184
unanim
##neuropa
depar
##ertel
muta
##429
harri
soli
trin
##qvist
hirsch
1770
syntacti
tainer
macedonia
discretize
##organ
##vska
serbia
freque
##greg
provo
unresolv
##dean
baptist
kaufman
##raza
instr
wilcox
lexicogra
##cionada
classificador
contrib
##organic
fft
fleisch
motif
exercis
sridhar
propriet
virt
betray
zupan
parsimon
##prehensive
ghost
reproducibil
##hypothese
telegraph
reliabil
volition
axiomatiz
1190
##xuan
mccra
plagia
multiplier
##comfort
apodosis
askubuntu
beschreib
blagodarnost
bobicev
bousquet
catalonia
chelswu
clandestin
cleopatra
clilstore
clpsych
cpfhs
dioxide
django
embroider
endogenes
enjambment
epublicain
escalante
gerdemann
gnmfnc
grodzinsky
hellwig
hepburn
issttanl
jackknif
japonais
jewellery
kekalainen
kitsuregawa
kokkinakis
kumlien
malapropism
mccawley
mononucle
mosquito
nikiforos
obfuscation
ogilvie
oltramari
pedestrian
polycondensat
popowich
poursuivr
replysentiavg
replysentistrng
rhematizer
riviere
rondane
sculpture
sindhwani
sprockets
sripada
steganography
tomlinson
tuebingen
unpleasant
venezuela
vowpal
zastosowani
accomodate
echocardiogram
messenger
odysse
saraswat
aggravate
austronesia
bellegarda
biodrb
boguslavsk
embellish
glasbey
guevara
hemispheric
hidraden
horvitz
infarction
jealous
mcenery
mehrabian
membrane
mikulov
nuotolin
raffael
sibilant
skyscraper
subramanya
venhuizen
wagstaf
warfare
##esthesia
cavagli
desolate
lahiri
pentagon
rhetstruct
xgboost
##diphenyl
brychc
euphemi
geolissterm
lietuv
lonsdale
obsolete
osrcg
zagorsk
zisatus
bracewell
buecz
compostela
enthymeme
factotum
haussler
heinrich
omniglot
347354
congratulation
lytinen
panchenko
papageor
ribosom
##mittemellan
gravano
politecnic
##gelezen
alchemy
declenche
goharian
pharyngeal
pszczela
whissell
conjugacy
enlighten
firewall
impera
parfda
tripadvisor
mahesh
mubarak
undocumented
compdtrs
condemn
gaseous
najafi
kaohs
podsta
wooters
quatrains
sandhaus
stubbs
athletic
barrault
hammarstr
trophy
bodenreider
kowalsk
swevoc
absciss
anthroponym
leusch
saussure
sttsmorph
beskrivningen
1426143
384394
xiaoqian
microprocessor
ministrija
omotta
refugee
raffinement
citius
lexconn
lingvisti
luxembourgish
supermarket
##schaft
217226
dropconnect
flintlock
paintball
niesler
deutschland
janeiro
arborescence
futagi
selbst
ponctuation
mutuelle
filtrage
nominalisations
prawitz
678687
gospel
tyrann
discrep
impediment
constancy
pennsylva
##ologisk
legibility
vigil
goalkeeper
laroche
stupid
secretaria
watashi
kristofer
courtroom
folksonom
##ronautic
##jezd
drecnn
accompa
bloomberg
darbelnet
unhappy
flavour
protooh
ristad
prsident
subcontract
cmudict
chinois
avalanche
aleatoirement
attitudinal
disguise
sozial
devenement
begriff
##roblast
aguiar
dsynts
sussex
undiacriti
scitail
ficler
clumsy
polytope
##elargit
ecnica
macchina
ducrot
##flodenn
prealable
pessoa
gandda
kidney
saarbr
createdebate
schafer
iceberg
houston
roskata
edecan
larochelle
glaff
423430
513553
stralnt
squid
kgeval
obeid
timbre
nishant
ekstensi
dienst
jonsson
protofiller
huntington
mcallester
hessian
selinker
anonymity
pakho
wikisql
cuadr
kontrast
palinka
lesbian
dimora
vannella
abbey
geffet
atwv
afirmar
perceptible
scisor
vancou
katarina
##rj
celikyil
hoeks
forcada
milidi
keshet
egenskaper
collinearity
hanneman
pineau
underpinning
endogenous
jazyk
confinement
carlini
palpite
tarefa
oncina
anonymization
maekawa
hotdog
tritagger
capabili
drastic
elusive
officielle
chairperson
ctrw
britney
stadler
deductible
presup
pathtodoma
diversities
structnre
fishermen
kybot
ladder
chengshi
yoshiki
conviction
104113
determiniz
seguinte
montoyo
radlex
daphn
unrealized
disputant
unclipped
collegiate
collinear
233523
gracefully
subtleties
redeem
maillard
endcountry
gmtg
jonker
##natu
uncertainties
wrestl
laaligh
##mandibul
bptt
##ligibility
ozge
tekst
dorigine
cclda
jyut
labsize
cetino
submodules
garz
mecanism
heikki
provost
reftex
otzsch
spiritual
gouverneur
purify
crazy
hypertags
librarian
##iberian
lynx
vegas
periphery
reluctan
competency
kwak
rhyming
unsatisfied
sportscast
nlptea
dvms
unaltered
wissen
decomposability
bioscience
nudar
##parsifal
explique
requlr
omdat
efros
##orbid
escrito
##rinkle
ausga
rudz
estudo
shutter
republicain
disappointed
permanence
buttler
chatzi
zupanij
volley
encodingdesc
significado
anthropology
unergative
peanut
colloquialism
uncountable
simultaneity
gebre
pomoc
partielle
fallback
granularite
epistemolog
haug
barzi
genotype
picard
janvin
extraites
133140
##lustration
##eled
jlpt
talip
bueno
metafunction
unborn
##wwhh
indyk
morrow
fluidity
babble
prophase
subordi
scipo
contingencies
movieshow
quack
solvable
fallacy
agricultur
diathesis
passport
narr
estim
ziai
civic
foothold
gleason
##iung
bbam
parsimony
vernacu
tekni
##counterintuitive
fudan
anttila
klieg
unfixed
abdication
spawn
prussia
postnominal
kiyong
underpin
##czar
##jung
steiger
vasile
anscomb
rupture
straddl
niece
sympo
cobol
balloon
dziur
radiologist
tomek
marketplace
fuhr
##ntifical
kazem
vvq
pontil
##biguities
jrgen
fimction
marcel
hobbies
##akata
accentual
numsub
lassy
decoys
giannak
proxies
meadow
oooooooy
abb
##power
##jungl
cheerful
pseudopassage
kahn
1420
macau
anaiys
pearce
stigmatiz
reorganization
voisins
desaparecido
##ozinsk
adolescents
caregivers
geeraerts
ernest
webcam
referentielles
wollen
phonograms
xpz
tabulated
indiscriminate
throat
screenplays
##lekov
ktimeml
avgsim
partnership
gertz
##bindung
ovals
untypical
baptista
unrelatedness
koji
siege
enjoyable
mundu
djur
unassigned
urba
undetermined
1243
extremity
metaphoricity
multidict
paraph
agnos
cyclist
headquarters
61762
mediaeval
textgrid
postcos
atelier
workaround
nonphysical
laccent
stoch
##wowe
adventure
shigehi
ocuk
##ahona
audiotape
lieber
thriller
sweep
ticipant
##rantz
tunisien
clerk
cortex
unusable
ordinateur
ziem
specialisation
cccp
daugh
skyline
mongo
diminu
funktionell
unlexicali
elma
judicious
huet
messy
equivocal
localiza
parrott
carbo
overwriting
##rack
ricerc
sentivec
libri
##ambara
namedentity
##crophone
orthogonality
mvps
hyland
whelming
hyperonymy
mcder
businessman
sape
ostling
cobuild
habitually
dexter
lapse
##nehmen
blrt
nanigo
glutinati
kreuz
reser
##favorabl
elissa
mali
spacebook
constrast
zabokrtsky
phonologique
axiomatization
ppdas
volumin
liberalism
maybury
##sef
skull
dsouza
antony
dermato
verifica
developement
mijn
rightward
sturt
etabli
encouragement
ecoute
conduit
defeated
codeswitch
stanton
sstc
polysemes
conrad
udeling
vectoriel
commenced
riedl
seize
gabba
empirist
exemplification
##bnik
##zeug
allmono
rajen
bilbo
##towoti
wamba
stipulation
##onoz
shubha
pertise
balancedness
survivor
flush
##wagi
phisms
mambr
misguid
restruc
imbricat
geschichte
##keit
supplementation
kuwait
remarquer
##rogative
##abbit
reweighting
hhc
wordcloud
xinxi
puddling
etudie
mili
blanco
contenant
##hile
racai
socke
uncle
ffff
5367
losers
pomer
##ukut
##lotte
newark
retellings
investigators
##interruptibility
edison
videotapes
monoid
kober
checksum
extrinsically
reestimated
7074
katso
confounders
decow
dexemples
operand
svmrank
##physobj
niwa
physique
##hdad
unquestion
clearnlp
pejorati
donoy
extrin
##ecuted
flooded
kategori
determina
pmgs
standardisation
katri
flour
induits
insulin
stabilizes
rowe
##versarial
minard
agust
albla
handicap
##imager
canonique
pms
inflexion
unnaturally
nacional
responsive
cerebr
dcca
gegen
workforce
heyer
quentially
2787
pillar
demarcate
##premention
##bitrarily
nosso
reattach
1949
iri
poorest
zeno
pendix
freenet
persoon
freitas
ideogram
hoved
clsp
slipper
##ispronunciations
1655
sabha
lsrc
motiv
hdag
posium
apriori
beverage
whiske
operands
78679
##cpu
pratt
englishchinese
##segmentations
2329
degrada
sbw
##persen
florist
cctv
chute
conjun
dagger
##qta
##cessfifl
tecnica
abend
newsqa
sluis
stretched
##rkz
##gel
mammograph
##isfaction
purport
valencian
##spects
##amopt
##rison
signifiant
literalness
3300
glot
davison
drought
famille
croblogs
7382
prosvjed
submodels
composants
jwnl
##hlg
methyl
muni
vendors
intellectually
noodles
boxplots
##brot
tiani
##cett
beverages
ehealth
schoen
[...]
